{
  "version": "1.0",
  "truncation": null,
  "padding": null,
  "added_tokens": [
    {
      "id": 0,
      "content": "[PAD]",
      "single_word": false,
      "lstrip": false,
      "rstrip": false,
      "normalized": false,
      "special": true
    },
    {
      "id": 1,
      "content": "[UNK]",
      "single_word": false,
      "lstrip": false,
      "rstrip": false,
      "normalized": false,
      "special": true
    },
    {
      "id": 2,
      "content": "[CLS]",
      "single_word": false,
      "lstrip": false,
      "rstrip": false,
      "normalized": false,
      "special": true
    },
    {
      "id": 3,
      "content": "[SEP]",
      "single_word": false,
      "lstrip": false,
      "rstrip": false,
      "normalized": false,
      "special": true
    },
    {
      "id": 4,
      "content": "[MASK]",
      "single_word": false,
      "lstrip": false,
      "rstrip": false,
      "normalized": false,
      "special": true
    }
  ],
  "normalizer": {
    "type": "BertNormalizer",
    "clean_text": true,
    "handle_chinese_chars": true,
    "strip_accents": null,
    "lowercase": false
  },
  "pre_tokenizer": {
    "type": "BertPreTokenizer"
  },
  "post_processor": {
    "type": "TemplateProcessing",
    "single": [
      {
        "SpecialToken": {
          "id": "[CLS]",
          "type_id": 0
        }
      },
      {
        "Sequence": {
          "id": "A",
          "type_id": 0
        }
      },
      {
        "SpecialToken": {
          "id": "[SEP]",
          "type_id": 0
        }
      }
    ],
    "pair": [
      {
        "SpecialToken": {
          "id": "[CLS]",
          "type_id": 0
        }
      },
      {
        "Sequence": {
          "id": "A",
          "type_id": 0
        }
      },
      {
        "SpecialToken": {
          "id": "[SEP]",
          "type_id": 0
        }
      },
      {
        "Sequence": {
          "id": "B",
          "type_id": 1
        }
      },
      {
        "SpecialToken": {
          "id": "[SEP]",
          "type_id": 1
        }
      }
    ],
    "special_tokens": {
      "[CLS]": {
        "id": "[CLS]",
        "ids": [
          2
        ],
        "tokens": [
          "[CLS]"
        ]
      },
      "[SEP]": {
        "id": "[SEP]",
        "ids": [
          3
        ],
        "tokens": [
          "[SEP]"
        ]
      }
    }
  },
  "decoder": {
    "type": "WordPiece",
    "prefix": "##",
    "cleanup": true
  },
  "model": {
    "type": "WordPiece",
    "unk_token": "[UNK]",
    "continuing_subword_prefix": "##",
    "max_input_chars_per_word": 100,
    "vocab": {
      "[PAD]": 0,
      "[UNK]": 1,
      "[CLS]": 2,
      "[SEP]": 3,
      "[MASK]": 4,
      "!": 5,
      "\"": 6,
      "#": 7,
      "$": 8,
      "%": 9,
      "&": 10,
      "'": 11,
      "(": 12,
      ")": 13,
      "*": 14,
      "+": 15,
      ",": 16,
      "-": 17,
      ".": 18,
      "/": 19,
      "0": 20,
      "1": 21,
      "2": 22,
      "3": 23,
      "4": 24,
      "5": 25,
      "6": 26,
      "7": 27,
      "8": 28,
      "9": 29,
      ":": 30,
      ";": 31,
      "<": 32,
      "=": 33,
      ">": 34,
      "?": 35,
      "@": 36,
      "A": 37,
      "B": 38,
      "C": 39,
      "D": 40,
      "E": 41,
      "F": 42,
      "G": 43,
      "H": 44,
      "I": 45,
      "J": 46,
      "K": 47,
      "L": 48,
      "M": 49,
      "N": 50,
      "O": 51,
      "P": 52,
      "Q": 53,
      "R": 54,
      "S": 55,
      "T": 56,
      "U": 57,
      "V": 58,
      "W": 59,
      "X": 60,
      "Y": 61,
      "Z": 62,
      "[": 63,
      "\\": 64,
      "]": 65,
      "^": 66,
      "_": 67,
      "`": 68,
      "a": 69,
      "b": 70,
      "c": 71,
      "d": 72,
      "e": 73,
      "f": 74,
      "g": 75,
      "h": 76,
      "i": 77,
      "j": 78,
      "k": 79,
      "l": 80,
      "m": 81,
      "n": 82,
      "o": 83,
      "p": 84,
      "q": 85,
      "r": 86,
      "s": 87,
      "t": 88,
      "u": 89,
      "v": 90,
      "w": 91,
      "x": 92,
      "y": 93,
      "z": 94,
      "{": 95,
      "|": 96,
      "}": 97,
      "~": 98,
      "·": 99,
      "∼": 100,
      "ㄱ": 101,
      "ㄲ": 102,
      "ㄳ": 103,
      "ㄴ": 104,
      "ㄵ": 105,
      "ㄶ": 106,
      "ㄷ": 107,
      "ㄸ": 108,
      "ㄹ": 109,
      "ㄺ": 110,
      "ㄻ": 111,
      "ㄼ": 112,
      "ㄽ": 113,
      "ㄾ": 114,
      "ㄿ": 115,
      "ㅀ": 116,
      "ㅁ": 117,
      "ㅂ": 118,
      "ㅃ": 119,
      "ㅄ": 120,
      "ㅅ": 121,
      "ㅆ": 122,
      "ㅇ": 123,
      "ㅈ": 124,
      "ㅉ": 125,
      "ㅊ": 126,
      "ㅋ": 127,
      "ㅌ": 128,
      "ㅍ": 129,
      "ㅎ": 130,
      "ㅏ": 131,
      "ㅐ": 132,
      "ㅑ": 133,
      "ㅒ": 134,
      "ㅓ": 135,
      "ㅔ": 136,
      "ㅕ": 137,
      "ㅖ": 138,
      "ㅗ": 139,
      "ㅘ": 140,
      "ㅙ": 141,
      "ㅚ": 142,
      "ㅛ": 143,
      "ㅜ": 144,
      "ㅝ": 145,
      "ㅞ": 146,
      "ㅟ": 147,
      "ㅠ": 148,
      "ㅡ": 149,
      "ㅢ": 150,
      "ㅣ": 151,
      "ㅤ": 152,
      "가": 153,
      "각": 154,
      "갂": 155,
      "갃": 156,
      "간": 157,
      "갅": 158,
      "갆": 159,
      "갇": 160,
      "갈": 161,
      "갉": 162,
      "갊": 163,
      "갋": 164,
      "갌": 165,
      "갍": 166,
      "갎": 167,
      "갏": 168,
      "감": 169,
      "갑": 170,
      "값": 171,
      "갓": 172,
      "갔": 173,
      "강": 174,
      "갖": 175,
      "갗": 176,
      "갘": 177,
      "같": 178,
      "갚": 179,
      "갛": 180,
      "개": 181,
      "객": 182,
      "갞": 183,
      "갠": 184,
      "갢": 185,
      "갣": 186,
      "갤": 187,
      "갥": 188,
      "갨": 189,
      "갬": 190,
      "갭": 191,
      "갮": 192,
      "갯": 193,
      "갰": 194,
      "갱": 195,
      "갴": 196,
      "갵": 197,
      "갶": 198,
      "갷": 199,
      "갸": 200,
      "갹": 201,
      "갺": 202,
      "갻": 203,
      "갼": 204,
      "갽": 205,
      "갿": 206,
      "걀": 207,
      "걄": 208,
      "걈": 209,
      "걉": 210,
      "걊": 211,
      "걋": 212,
      "걌": 213,
      "걍": 214,
      "걐": 215,
      "걑": 216,
      "걔": 217,
      "걕": 218,
      "걖": 219,
      "걘": 220,
      "걜": 221,
      "걠": 222,
      "걥": 223,
      "걧": 224,
      "걩": 225,
      "거": 226,
      "걱": 227,
      "걲": 228,
      "걳": 229,
      "건": 230,
      "걵": 231,
      "걷": 232,
      "걸": 233,
      "걹": 234,
      "걺": 235,
      "걼": 236,
      "걽": 237,
      "걿": 238,
      "검": 239,
      "겁": 240,
      "겂": 241,
      "것": 242,
      "겄": 243,
      "겅": 244,
      "겆": 245,
      "겇": 246,
      "겈": 247,
      "겉": 248,
      "겊": 249,
      "겋": 250,
      "게": 251,
      "겍": 252,
      "겐": 253,
      "겓": 254,
      "겔": 255,
      "겕": 256,
      "겖": 257,
      "겜": 258,
      "겝": 259,
      "겟": 260,
      "겠": 261,
      "겡": 262,
      "겢": 263,
      "겣": 264,
      "겤": 265,
      "겥": 266,
      "겦": 267,
      "겧": 268,
      "겨": 269,
      "격": 270,
      "겪": 271,
      "겫": 272,
      "견": 273,
      "겯": 274,
      "결": 275,
      "겱": 276,
      "겴": 277,
      "겷": 278,
      "겸": 279,
      "겹": 280,
      "겻": 281,
      "겼": 282,
      "경": 283,
      "겾": 284,
      "겿": 285,
      "곀": 286,
      "곁": 287,
      "곂": 288,
      "곃": 289,
      "계": 290,
      "곅": 291,
      "곆": 292,
      "곈": 293,
      "곋": 294,
      "곌": 295,
      "곕": 296,
      "곖": 297,
      "곗": 298,
      "곘": 299,
      "곙": 300,
      "곝": 301,
      "고": 302,
      "곡": 303,
      "곢": 304,
      "곤": 305,
      "곦": 306,
      "곧": 307,
      "골": 308,
      "곪": 309,
      "곬": 310,
      "곯": 311,
      "곰": 312,
      "곱": 313,
      "곲": 314,
      "곳": 315,
      "곴": 316,
      "공": 317,
      "곶": 318,
      "곷": 319,
      "곸": 320,
      "곹": 321,
      "곺": 322,
      "곻": 323,
      "과": 324,
      "곽": 325,
      "관": 326,
      "괁": 327,
      "괂": 328,
      "괃": 329,
      "괄": 330,
      "괆": 331,
      "괋": 332,
      "괌": 333,
      "괍": 334,
      "괏": 335,
      "괐": 336,
      "광": 337,
      "괒": 338,
      "괔": 339,
      "괕": 340,
      "괗": 341,
      "괘": 342,
      "괙": 343,
      "괜": 344,
      "괞": 345,
      "괠": 346,
      "괨": 347,
      "괩": 348,
      "괬": 349,
      "괭": 350,
      "괴": 351,
      "괵": 352,
      "괸": 353,
      "괺": 354,
      "괻": 355,
      "괼": 356,
      "굄": 357,
      "굅": 358,
      "굇": 359,
      "굈": 360,
      "굉": 361,
      "굍": 362,
      "교": 363,
      "굑": 364,
      "굔": 365,
      "굗": 366,
      "굘": 367,
      "굛": 368,
      "굡": 369,
      "굣": 370,
      "굥": 371,
      "굦": 372,
      "굫": 373,
      "구": 374,
      "국": 375,
      "굮": 376,
      "굯": 377,
      "군": 378,
      "굲": 379,
      "굳": 380,
      "굴": 381,
      "굵": 382,
      "굶": 383,
      "굷": 384,
      "굸": 385,
      "굻": 386,
      "굼": 387,
      "굽": 388,
      "굿": 389,
      "궁": 390,
      "궂": 391,
      "궃": 392,
      "궄": 393,
      "궅": 394,
      "궆": 395,
      "궇": 396,
      "궈": 397,
      "궉": 398,
      "권": 399,
      "궎": 400,
      "궐": 401,
      "궘": 402,
      "궙": 403,
      "궛": 404,
      "궜": 405,
      "궝": 406,
      "궞": 407,
      "궠": 408,
      "궡": 409,
      "궢": 410,
      "궤": 411,
      "궥": 412,
      "궨": 413,
      "궩": 414,
      "궪": 415,
      "궫": 416,
      "궬": 417,
      "궭": 418,
      "궮": 419,
      "궯": 420,
      "궳": 421,
      "궴": 422,
      "궶": 423,
      "궷": 424,
      "궸": 425,
      "궹": 426,
      "궻": 427,
      "궼": 428,
      "궿": 429,
      "귀": 430,
      "귁": 431,
      "귄": 432,
      "귈": 433,
      "귐": 434,
      "귑": 435,
      "귓": 436,
      "귔": 437,
      "귕": 438,
      "귖": 439,
      "귘": 440,
      "귚": 441,
      "규": 442,
      "귝": 443,
      "균": 444,
      "귡": 445,
      "귢": 446,
      "귤": 447,
      "귪": 448,
      "귬": 449,
      "귭": 450,
      "귯": 451,
      "귱": 452,
      "귳": 453,
      "그": 454,
      "극": 455,
      "귺": 456,
      "근": 457,
      "귾": 458,
      "귿": 459,
      "글": 460,
      "긁": 461,
      "긂": 462,
      "긄": 463,
      "긇": 464,
      "금": 465,
      "급": 466,
      "긊": 467,
      "긋": 468,
      "긌": 469,
      "긍": 470,
      "긎": 471,
      "긏": 472,
      "긐": 473,
      "긑": 474,
      "긒": 475,
      "긓": 476,
      "긔": 477,
      "긕": 478,
      "긘": 479,
      "긜": 480,
      "긤": 481,
      "긧": 482,
      "긩": 483,
      "기": 484,
      "긱": 485,
      "긲": 486,
      "긴": 487,
      "긶": 488,
      "긷": 489,
      "길": 490,
      "긺": 491,
      "긻": 492,
      "긼": 493,
      "긾": 494,
      "긿": 495,
      "김": 496,
      "깁": 497,
      "깂": 498,
      "깃": 499,
      "깄": 500,
      "깅": 501,
      "깆": 502,
      "깇": 503,
      "깈": 504,
      "깉": 505,
      "깊": 506,
      "깋": 507,
      "까": 508,
      "깍": 509,
      "깎": 510,
      "깐": 511,
      "깓": 512,
      "깔": 513,
      "깖": 514,
      "깜": 515,
      "깝": 516,
      "깞": 517,
      "깟": 518,
      "깠": 519,
      "깡": 520,
      "깢": 521,
      "깣": 522,
      "깤": 523,
      "깥": 524,
      "깧": 525,
      "깨": 526,
      "깩": 527,
      "깪": 528,
      "깬": 529,
      "깯": 530,
      "깰": 531,
      "깳": 532,
      "깵": 533,
      "깶": 534,
      "깸": 535,
      "깹": 536,
      "깻": 537,
      "깼": 538,
      "깽": 539,
      "깾": 540,
      "깿": 541,
      "꺀": 542,
      "꺃": 543,
      "꺄": 544,
      "꺅": 545,
      "꺆": 546,
      "꺇": 547,
      "꺈": 548,
      "꺌": 549,
      "꺏": 550,
      "꺔": 551,
      "꺕": 552,
      "꺗": 553,
      "꺘": 554,
      "꺙": 555,
      "꺜": 556,
      "꺠": 557,
      "꺢": 558,
      "꺤": 559,
      "꺨": 560,
      "꺰": 561,
      "꺲": 562,
      "꺴": 563,
      "꺵": 564,
      "꺼": 565,
      "꺽": 566,
      "꺾": 567,
      "껀": 568,
      "껃": 569,
      "껄": 570,
      "껌": 571,
      "껍": 572,
      "껏": 573,
      "껐": 574,
      "껑": 575,
      "껒": 576,
      "껕": 577,
      "껗": 578,
      "께": 579,
      "껙": 580,
      "껚": 581,
      "껜": 582,
      "껠": 583,
      "껨": 584,
      "껩": 585,
      "껫": 586,
      "껬": 587,
      "껭": 588,
      "껰": 589,
      "껴": 590,
      "껵": 591,
      "껶": 592,
      "껸": 593,
      "껼": 594,
      "꼄": 595,
      "꼅": 596,
      "꼇": 597,
      "꼈": 598,
      "꼉": 599,
      "꼍": 600,
      "꼐": 601,
      "꼔": 602,
      "꼚": 603,
      "꼣": 604,
      "꼬": 605,
      "꼭": 606,
      "꼮": 607,
      "꼰": 608,
      "꼱": 609,
      "꼲": 610,
      "꼳": 611,
      "꼴": 612,
      "꼸": 613,
      "꼻": 614,
      "꼼": 615,
      "꼽": 616,
      "꼿": 617,
      "꽁": 618,
      "꽂": 619,
      "꽃": 620,
      "꽅": 621,
      "꽆": 622,
      "꽇": 623,
      "꽈": 624,
      "꽉": 625,
      "꽊": 626,
      "꽌": 627,
      "꽐": 628,
      "꽑": 629,
      "꽘": 630,
      "꽛": 631,
      "꽜": 632,
      "꽝": 633,
      "꽣": 634,
      "꽤": 635,
      "꽥": 636,
      "꽦": 637,
      "꽨": 638,
      "꽬": 639,
      "꽸": 640,
      "꽹": 641,
      "꾀": 642,
      "꾁": 643,
      "꾄": 644,
      "꾇": 645,
      "꾈": 646,
      "꾐": 647,
      "꾑": 648,
      "꾔": 649,
      "꾕": 650,
      "꾜": 651,
      "꾩": 652,
      "꾬": 653,
      "꾭": 654,
      "꾱": 655,
      "꾳": 656,
      "꾸": 657,
      "꾹": 658,
      "꾺": 659,
      "꾼": 660,
      "꾾": 661,
      "꾿": 662,
      "꿀": 663,
      "꿁": 664,
      "꿂": 665,
      "꿃": 666,
      "꿅": 667,
      "꿇": 668,
      "꿈": 669,
      "꿉": 670,
      "꿋": 671,
      "꿍": 672,
      "꿎": 673,
      "꿏": 674,
      "꿐": 675,
      "꿑": 676,
      "꿓": 677,
      "꿔": 678,
      "꿕": 679,
      "꿘": 680,
      "꿜": 681,
      "꿝": 682,
      "꿥": 683,
      "꿧": 684,
      "꿨": 685,
      "꿩": 686,
      "꿯": 687,
      "꿰": 688,
      "꿱": 689,
      "꿴": 690,
      "꿸": 691,
      "꿻": 692,
      "뀀": 693,
      "뀁": 694,
      "뀄": 695,
      "뀅": 696,
      "뀉": 697,
      "뀌": 698,
      "뀍": 699,
      "뀐": 700,
      "뀔": 701,
      "뀙": 702,
      "뀜": 703,
      "뀝": 704,
      "뀟": 705,
      "뀠": 706,
      "뀡": 707,
      "뀢": 708,
      "뀨": 709,
      "뀩": 710,
      "뀪": 711,
      "뀬": 712,
      "뀰": 713,
      "뀸": 714,
      "뀽": 715,
      "뀿": 716,
      "끄": 717,
      "끅": 718,
      "끆": 719,
      "끈": 720,
      "끉": 721,
      "끊": 722,
      "끋": 723,
      "끌": 724,
      "끍": 725,
      "끎": 726,
      "끐": 727,
      "끓": 728,
      "끔": 729,
      "끕": 730,
      "끗": 731,
      "끙": 732,
      "끚": 733,
      "끛": 734,
      "끜": 735,
      "끝": 736,
      "끞": 737,
      "끟": 738,
      "끠": 739,
      "끤": 740,
      "끨": 741,
      "끱": 742,
      "끵": 743,
      "끼": 744,
      "끽": 745,
      "끾": 746,
      "낀": 747,
      "낄": 748,
      "낅": 749,
      "낋": 750,
      "낌": 751,
      "낍": 752,
      "낏": 753,
      "낐": 754,
      "낑": 755,
      "낔": 756,
      "나": 757,
      "낙": 758,
      "낚": 759,
      "낛": 760,
      "난": 761,
      "낝": 762,
      "낞": 763,
      "낟": 764,
      "날": 765,
      "낡": 766,
      "낢": 767,
      "낣": 768,
      "낤": 769,
      "낧": 770,
      "남": 771,
      "납": 772,
      "낪": 773,
      "낫": 774,
      "났": 775,
      "낭": 776,
      "낮": 777,
      "낯": 778,
      "낰": 779,
      "낱": 780,
      "낲": 781,
      "낳": 782,
      "내": 783,
      "낵": 784,
      "낸": 785,
      "낻": 786,
      "낼": 787,
      "낽": 788,
      "냄": 789,
      "냅": 790,
      "냇": 791,
      "냈": 792,
      "냉": 793,
      "냊": 794,
      "냌": 795,
      "냏": 796,
      "냐": 797,
      "냑": 798,
      "냔": 799,
      "냘": 800,
      "냙": 801,
      "냛": 802,
      "냠": 803,
      "냡": 804,
      "냣": 805,
      "냤": 806,
      "냥": 807,
      "냧": 808,
      "냨": 809,
      "냫": 810,
      "냬": 811,
      "냸": 812,
      "냹": 813,
      "냽": 814,
      "넀": 815,
      "넁": 816,
      "너": 817,
      "넉": 818,
      "넊": 819,
      "넋": 820,
      "넌": 821,
      "넎": 822,
      "넏": 823,
      "널": 824,
      "넑": 825,
      "넒": 826,
      "넓": 827,
      "넔": 828,
      "넖": 829,
      "넗": 830,
      "넘": 831,
      "넙": 832,
      "넚": 833,
      "넛": 834,
      "넜": 835,
      "넝": 836,
      "넞": 837,
      "넟": 838,
      "넠": 839,
      "넡": 840,
      "넢": 841,
      "넣": 842,
      "네": 843,
      "넥": 844,
      "넧": 845,
      "넨": 846,
      "넫": 847,
      "넬": 848,
      "넳": 849,
      "넴": 850,
      "넵": 851,
      "넷": 852,
      "넸": 853,
      "넹": 854,
      "넺": 855,
      "넼": 856,
      "넽": 857,
      "넾": 858,
      "넿": 859,
      "녀": 860,
      "녁": 861,
      "녂": 862,
      "녃": 863,
      "년": 864,
      "녅": 865,
      "녇": 866,
      "녈": 867,
      "녋": 868,
      "념": 869,
      "녑": 870,
      "녓": 871,
      "녔": 872,
      "녕": 873,
      "녖": 874,
      "녗": 875,
      "녘": 876,
      "녙": 877,
      "녛": 878,
      "녜": 879,
      "녝": 880,
      "녠": 881,
      "녤": 882,
      "녬": 883,
      "녭": 884,
      "녯": 885,
      "노": 886,
      "녹": 887,
      "녺": 888,
      "녻": 889,
      "논": 890,
      "녿": 891,
      "놀": 892,
      "놁": 893,
      "놂": 894,
      "놃": 895,
      "놄": 896,
      "놅": 897,
      "놈": 898,
      "놉": 899,
      "놊": 900,
      "놋": 901,
      "놌": 902,
      "농": 903,
      "놎": 904,
      "놏": 905,
      "놐": 906,
      "놑": 907,
      "높": 908,
      "놓": 909,
      "놔": 910,
      "놕": 911,
      "놘": 912,
      "놜": 913,
      "놤": 914,
      "놥": 915,
      "놧": 916,
      "놨": 917,
      "놩": 918,
      "놬": 919,
      "놯": 920,
      "놰": 921,
      "뇄": 922,
      "뇌": 923,
      "뇍": 924,
      "뇐": 925,
      "뇓": 926,
      "뇔": 927,
      "뇜": 928,
      "뇝": 929,
      "뇟": 930,
      "뇠": 931,
      "뇡": 932,
      "뇨": 933,
      "뇩": 934,
      "뇬": 935,
      "뇰": 936,
      "뇸": 937,
      "뇹": 938,
      "뇻": 939,
      "뇽": 940,
      "눁": 941,
      "눂": 942,
      "눃": 943,
      "누": 944,
      "눅": 945,
      "눈": 946,
      "눋": 947,
      "눌": 948,
      "눔": 949,
      "눕": 950,
      "눗": 951,
      "눙": 952,
      "눚": 953,
      "눛": 954,
      "눝": 955,
      "눞": 956,
      "눟": 957,
      "눠": 958,
      "눤": 959,
      "눨": 960,
      "눳": 961,
      "눴": 962,
      "눵": 963,
      "눼": 964,
      "뉀": 965,
      "뉇": 966,
      "뉈": 967,
      "뉍": 968,
      "뉏": 969,
      "뉘": 970,
      "뉙": 971,
      "뉜": 972,
      "뉠": 973,
      "뉤": 974,
      "뉨": 975,
      "뉩": 976,
      "뉫": 977,
      "뉭": 978,
      "뉴": 979,
      "뉵": 980,
      "뉸": 981,
      "뉼": 982,
      "뉽": 983,
      "늄": 984,
      "늅": 985,
      "늇": 986,
      "늉": 987,
      "늎": 988,
      "늏": 989,
      "느": 990,
      "늑": 991,
      "늒": 992,
      "늓": 993,
      "는": 994,
      "늕": 995,
      "늖": 996,
      "늗": 997,
      "늘": 998,
      "늙": 999,
      "늚": 1000,
      "늛": 1001,
      "늜": 1002,
      "늝": 1003,
      "늞": 1004,
      "늟": 1005,
      "늠": 1006,
      "늡": 1007,
      "늢": 1008,
      "늣": 1009,
      "늤": 1010,
      "능": 1011,
      "늦": 1012,
      "늧": 1013,
      "늨": 1014,
      "늩": 1015,
      "늪": 1016,
      "늫": 1017,
      "늬": 1018,
      "늰": 1019,
      "늴": 1020,
      "늼": 1021,
      "늿": 1022,
      "닁": 1023,
      "닂": 1024,
      "니": 1025,
      "닉": 1026,
      "닊": 1027,
      "닌": 1028,
      "닍": 1029,
      "닏": 1030,
      "닐": 1031,
      "닑": 1032,
      "닒": 1033,
      "닖": 1034,
      "님": 1035,
      "닙": 1036,
      "닛": 1037,
      "닜": 1038,
      "닝": 1039,
      "닞": 1040,
      "닟": 1041,
      "닠": 1042,
      "닡": 1043,
      "닢": 1044,
      "닣": 1045,
      "다": 1046,
      "닥": 1047,
      "닦": 1048,
      "닧": 1049,
      "단": 1050,
      "닪": 1051,
      "닫": 1052,
      "달": 1053,
      "닭": 1054,
      "닮": 1055,
      "닯": 1056,
      "닰": 1057,
      "닱": 1058,
      "닲": 1059,
      "닳": 1060,
      "담": 1061,
      "답": 1062,
      "닶": 1063,
      "닷": 1064,
      "닸": 1065,
      "당": 1066,
      "닺": 1067,
      "닻": 1068,
      "닼": 1069,
      "닽": 1070,
      "닾": 1071,
      "닿": 1072,
      "대": 1073,
      "댁": 1074,
      "댄": 1075,
      "댇": 1076,
      "댈": 1077,
      "댐": 1078,
      "댑": 1079,
      "댓": 1080,
      "댔": 1081,
      "댕": 1082,
      "댖": 1083,
      "댗": 1084,
      "댘": 1085,
      "댙": 1086,
      "댚": 1087,
      "댛": 1088,
      "댜": 1089,
      "댝": 1090,
      "댠": 1091,
      "댢": 1092,
      "댣": 1093,
      "댤": 1094,
      "댥": 1095,
      "댫": 1096,
      "댬": 1097,
      "댭": 1098,
      "댯": 1099,
      "댰": 1100,
      "댱": 1101,
      "댶": 1102,
      "댷": 1103,
      "댸": 1104,
      "댼": 1105,
      "덄": 1106,
      "덈": 1107,
      "덌": 1108,
      "덍": 1109,
      "더": 1110,
      "덕": 1111,
      "덖": 1112,
      "던": 1113,
      "덙": 1114,
      "덚": 1115,
      "덛": 1116,
      "덜": 1117,
      "덝": 1118,
      "덞": 1119,
      "덟": 1120,
      "덠": 1121,
      "덣": 1122,
      "덤": 1123,
      "덥": 1124,
      "덧": 1125,
      "덨": 1126,
      "덩": 1127,
      "덪": 1128,
      "덫": 1129,
      "덬": 1130,
      "덭": 1131,
      "덮": 1132,
      "덯": 1133,
      "데": 1134,
      "덱": 1135,
      "덲": 1136,
      "덴": 1137,
      "덷": 1138,
      "델": 1139,
      "덼": 1140,
      "뎀": 1141,
      "뎁": 1142,
      "뎃": 1143,
      "뎄": 1144,
      "뎅": 1145,
      "뎆": 1146,
      "뎇": 1147,
      "뎈": 1148,
      "뎊": 1149,
      "뎋": 1150,
      "뎌": 1151,
      "뎍": 1152,
      "뎐": 1153,
      "뎒": 1154,
      "뎔": 1155,
      "뎗": 1156,
      "뎙": 1157,
      "뎜": 1158,
      "뎝": 1159,
      "뎟": 1160,
      "뎠": 1161,
      "뎡": 1162,
      "뎢": 1163,
      "뎦": 1164,
      "뎧": 1165,
      "뎨": 1166,
      "뎬": 1167,
      "뎰": 1168,
      "뎻": 1169,
      "뎽": 1170,
      "도": 1171,
      "독": 1172,
      "돆": 1173,
      "돇": 1174,
      "돈": 1175,
      "돊": 1176,
      "돋": 1177,
      "돌": 1178,
      "돍": 1179,
      "돎": 1180,
      "돐": 1181,
      "돒": 1182,
      "돓": 1183,
      "돔": 1184,
      "돕": 1185,
      "돖": 1186,
      "돗": 1187,
      "돘": 1188,
      "동": 1189,
      "돚": 1190,
      "돛": 1191,
      "돜": 1192,
      "돝": 1193,
      "돞": 1194,
      "돟": 1195,
      "돠": 1196,
      "돡": 1197,
      "돣": 1198,
      "돤": 1199,
      "돥": 1200,
      "돧": 1201,
      "돨": 1202,
      "돰": 1203,
      "돱": 1204,
      "돲": 1205,
      "돳": 1206,
      "돴": 1207,
      "돵": 1208,
      "돷": 1209,
      "돸": 1210,
      "돼": 1211,
      "돽": 1212,
      "돾": 1213,
      "됀": 1214,
      "됂": 1215,
      "됄": 1216,
      "됈": 1217,
      "됌": 1218,
      "됍": 1219,
      "됏": 1220,
      "됐": 1221,
      "됑": 1222,
      "됓": 1223,
      "되": 1224,
      "됙": 1225,
      "된": 1226,
      "됟": 1227,
      "될": 1228,
      "됡": 1229,
      "됢": 1230,
      "됣": 1231,
      "됨": 1232,
      "됩": 1233,
      "됫": 1234,
      "됬": 1235,
      "됭": 1236,
      "됮": 1237,
      "됯": 1238,
      "됰": 1239,
      "됱": 1240,
      "됳": 1241,
      "됴": 1242,
      "됵": 1243,
      "됸": 1244,
      "됺": 1245,
      "됻": 1246,
      "됼": 1247,
      "둄": 1248,
      "둅": 1249,
      "둇": 1250,
      "둉": 1251,
      "둏": 1252,
      "두": 1253,
      "둑": 1254,
      "둔": 1255,
      "둗": 1256,
      "둘": 1257,
      "둙": 1258,
      "둚": 1259,
      "둞": 1260,
      "둟": 1261,
      "둠": 1262,
      "둡": 1263,
      "둣": 1264,
      "둥": 1265,
      "둦": 1266,
      "둧": 1267,
      "둩": 1268,
      "둪": 1269,
      "둫": 1270,
      "둬": 1271,
      "둰": 1272,
      "둳": 1273,
      "둴": 1274,
      "둺": 1275,
      "둻": 1276,
      "둼": 1277,
      "둿": 1278,
      "뒀": 1279,
      "뒁": 1280,
      "뒇": 1281,
      "뒈": 1282,
      "뒙": 1283,
      "뒜": 1284,
      "뒝": 1285,
      "뒤": 1286,
      "뒥": 1287,
      "뒨": 1288,
      "뒬": 1289,
      "뒴": 1290,
      "뒵": 1291,
      "뒷": 1292,
      "뒸": 1293,
      "뒹": 1294,
      "뒽": 1295,
      "뒾": 1296,
      "뒿": 1297,
      "듀": 1298,
      "듁": 1299,
      "듄": 1300,
      "듈": 1301,
      "듐": 1302,
      "듑": 1303,
      "듓": 1304,
      "듕": 1305,
      "듛": 1306,
      "드": 1307,
      "득": 1308,
      "듟": 1309,
      "든": 1310,
      "듡": 1311,
      "듣": 1312,
      "들": 1313,
      "듥": 1314,
      "듦": 1315,
      "듧": 1316,
      "듨": 1317,
      "듩": 1318,
      "듪": 1319,
      "듫": 1320,
      "듬": 1321,
      "듭": 1322,
      "듮": 1323,
      "듯": 1324,
      "듰": 1325,
      "등": 1326,
      "듲": 1327,
      "듳": 1328,
      "듴": 1329,
      "듵": 1330,
      "듶": 1331,
      "듷": 1332,
      "듸": 1333,
      "듹": 1334,
      "듼": 1335,
      "딀": 1336,
      "딈": 1337,
      "딉": 1338,
      "딋": 1339,
      "딍": 1340,
      "딓": 1341,
      "디": 1342,
      "딕": 1343,
      "딘": 1344,
      "딛": 1345,
      "딜": 1346,
      "딤": 1347,
      "딥": 1348,
      "딦": 1349,
      "딧": 1350,
      "딨": 1351,
      "딩": 1352,
      "딪": 1353,
      "딫": 1354,
      "딬": 1355,
      "딭": 1356,
      "딮": 1357,
      "딯": 1358,
      "따": 1359,
      "딱": 1360,
      "딲": 1361,
      "딳": 1362,
      "딴": 1363,
      "딷": 1364,
      "딸": 1365,
      "딹": 1366,
      "딻": 1367,
      "딿": 1368,
      "땀": 1369,
      "땁": 1370,
      "땃": 1371,
      "땄": 1372,
      "땅": 1373,
      "땇": 1374,
      "땈": 1375,
      "땉": 1376,
      "땊": 1377,
      "땋": 1378,
      "때": 1379,
      "땍": 1380,
      "땐": 1381,
      "땓": 1382,
      "땔": 1383,
      "땛": 1384,
      "땜": 1385,
      "땝": 1386,
      "땟": 1387,
      "땠": 1388,
      "땡": 1389,
      "땨": 1390,
      "땰": 1391,
      "땳": 1392,
      "땵": 1393,
      "땶": 1394,
      "땸": 1395,
      "땽": 1396,
      "떄": 1397,
      "떅": 1398,
      "떈": 1399,
      "떋": 1400,
      "떌": 1401,
      "떎": 1402,
      "떔": 1403,
      "떗": 1404,
      "떘": 1405,
      "떙": 1406,
      "떠": 1407,
      "떡": 1408,
      "떢": 1409,
      "떣": 1410,
      "떤": 1411,
      "떥": 1412,
      "떦": 1413,
      "떧": 1414,
      "떨": 1415,
      "떪": 1416,
      "떫": 1417,
      "떭": 1418,
      "떯": 1419,
      "떰": 1420,
      "떱": 1421,
      "떳": 1422,
      "떴": 1423,
      "떵": 1424,
      "떷": 1425,
      "떺": 1426,
      "떻": 1427,
      "떼": 1428,
      "떽": 1429,
      "뗀": 1430,
      "뗃": 1431,
      "뗄": 1432,
      "뗆": 1433,
      "뗉": 1434,
      "뗌": 1435,
      "뗍": 1436,
      "뗏": 1437,
      "뗐": 1438,
      "뗑": 1439,
      "뗔": 1440,
      "뗗": 1441,
      "뗘": 1442,
      "뗜": 1443,
      "뗝": 1444,
      "뗞": 1445,
      "뗠": 1446,
      "뗡": 1447,
      "뗣": 1448,
      "뗫": 1449,
      "뗬": 1450,
      "뗳": 1451,
      "뗴": 1452,
      "뗵": 1453,
      "뗶": 1454,
      "뗸": 1455,
      "뗻": 1456,
      "뗼": 1457,
      "똇": 1458,
      "똈": 1459,
      "똉": 1460,
      "똏": 1461,
      "또": 1462,
      "똑": 1463,
      "똒": 1464,
      "똔": 1465,
      "똗": 1466,
      "똘": 1467,
      "똙": 1468,
      "똛": 1469,
      "똝": 1470,
      "똟": 1471,
      "똠": 1472,
      "똡": 1473,
      "똣": 1474,
      "똥": 1475,
      "똧": 1476,
      "똨": 1477,
      "똩": 1478,
      "똫": 1479,
      "똬": 1480,
      "똭": 1481,
      "똰": 1482,
      "똴": 1483,
      "똵": 1484,
      "똻": 1485,
      "똽": 1486,
      "뙀": 1487,
      "뙁": 1488,
      "뙇": 1489,
      "뙈": 1490,
      "뙉": 1491,
      "뙍": 1492,
      "뙒": 1493,
      "뙛": 1494,
      "뙜": 1495,
      "뙡": 1496,
      "뙤": 1497,
      "뙥": 1498,
      "뙨": 1499,
      "뙬": 1500,
      "뙵": 1501,
      "뙿": 1502,
      "뚀": 1503,
      "뚁": 1504,
      "뚂": 1505,
      "뚆": 1506,
      "뚊": 1507,
      "뚕": 1508,
      "뚜": 1509,
      "뚝": 1510,
      "뚞": 1511,
      "뚠": 1512,
      "뚢": 1513,
      "뚣": 1514,
      "뚤": 1515,
      "뚥": 1516,
      "뚦": 1517,
      "뚧": 1518,
      "뚨": 1519,
      "뚫": 1520,
      "뚬": 1521,
      "뚭": 1522,
      "뚮": 1523,
      "뚯": 1524,
      "뚱": 1525,
      "뚳": 1526,
      "뚵": 1527,
      "뚶": 1528,
      "뚷": 1529,
      "뚸": 1530,
      "뚼": 1531,
      "뛀": 1532,
      "뛈": 1533,
      "뛌": 1534,
      "뛔": 1535,
      "뛗": 1536,
      "뛟": 1537,
      "뛰": 1538,
      "뛱": 1539,
      "뛴": 1540,
      "뛷": 1541,
      "뛸": 1542,
      "뛹": 1543,
      "뜀": 1544,
      "뜁": 1545,
      "뜅": 1546,
      "뜌": 1547,
      "뜍": 1548,
      "뜏": 1549,
      "뜛": 1550,
      "뜨": 1551,
      "뜩": 1552,
      "뜬": 1553,
      "뜯": 1554,
      "뜰": 1555,
      "뜲": 1556,
      "뜳": 1557,
      "뜵": 1558,
      "뜷": 1559,
      "뜸": 1560,
      "뜹": 1561,
      "뜻": 1562,
      "뜼": 1563,
      "뜽": 1564,
      "뜾": 1565,
      "뜿": 1566,
      "띀": 1567,
      "띁": 1568,
      "띃": 1569,
      "띄": 1570,
      "띅": 1571,
      "띈": 1572,
      "띌": 1573,
      "띎": 1574,
      "띔": 1575,
      "띕": 1576,
      "띗": 1577,
      "띙": 1578,
      "띠": 1579,
      "띡": 1580,
      "띤": 1581,
      "띧": 1582,
      "띨": 1583,
      "띰": 1584,
      "띱": 1585,
      "띳": 1586,
      "띴": 1587,
      "띵": 1588,
      "띶": 1589,
      "띹": 1590,
      "라": 1591,
      "락": 1592,
      "띾": 1593,
      "띿": 1594,
      "란": 1595,
      "랂": 1596,
      "랃": 1597,
      "랄": 1598,
      "랅": 1599,
      "랆": 1600,
      "랋": 1601,
      "람": 1602,
      "랍": 1603,
      "랎": 1604,
      "랏": 1605,
      "랐": 1606,
      "랑": 1607,
      "랒": 1608,
      "랓": 1609,
      "랔": 1610,
      "랕": 1611,
      "랖": 1612,
      "랗": 1613,
      "래": 1614,
      "랙": 1615,
      "랜": 1616,
      "랝": 1617,
      "랟": 1618,
      "랠": 1619,
      "랤": 1620,
      "램": 1621,
      "랩": 1622,
      "랫": 1623,
      "랬": 1624,
      "랭": 1625,
      "랮": 1626,
      "랰": 1627,
      "랲": 1628,
      "랳": 1629,
      "랴": 1630,
      "략": 1631,
      "랸": 1632,
      "랼": 1633,
      "럂": 1634,
      "럄": 1635,
      "럅": 1636,
      "럆": 1637,
      "럇": 1638,
      "럈": 1639,
      "량": 1640,
      "럊": 1641,
      "럌": 1642,
      "럏": 1643,
      "럐": 1644,
      "럑": 1645,
      "럒": 1646,
      "럓": 1647,
      "럔": 1648,
      "럕": 1649,
      "럖": 1650,
      "럗": 1651,
      "럙": 1652,
      "럠": 1653,
      "럤": 1654,
      "럪": 1655,
      "러": 1656,
      "럭": 1657,
      "럮": 1658,
      "럯": 1659,
      "런": 1660,
      "럲": 1661,
      "럳": 1662,
      "럴": 1663,
      "럶": 1664,
      "럷": 1665,
      "럸": 1666,
      "럻": 1667,
      "럼": 1668,
      "럽": 1669,
      "럾": 1670,
      "럿": 1671,
      "렀": 1672,
      "렁": 1673,
      "렂": 1674,
      "렃": 1675,
      "렄": 1676,
      "렆": 1677,
      "렇": 1678,
      "레": 1679,
      "렉": 1680,
      "렌": 1681,
      "렏": 1682,
      "렐": 1683,
      "렗": 1684,
      "렘": 1685,
      "렙": 1686,
      "렛": 1687,
      "렜": 1688,
      "렝": 1689,
      "렞": 1690,
      "렠": 1691,
      "렡": 1692,
      "렣": 1693,
      "려": 1694,
      "력": 1695,
      "렦": 1696,
      "렧": 1697,
      "련": 1698,
      "렩": 1699,
      "렪": 1700,
      "렫": 1701,
      "렬": 1702,
      "렴": 1703,
      "렵": 1704,
      "렶": 1705,
      "렷": 1706,
      "렸": 1707,
      "령": 1708,
      "렺": 1709,
      "렼": 1710,
      "렾": 1711,
      "렿": 1712,
      "례": 1713,
      "롁": 1714,
      "롄": 1715,
      "롈": 1716,
      "롍": 1717,
      "롐": 1718,
      "롑": 1719,
      "롓": 1720,
      "롔": 1721,
      "롖": 1722,
      "롘": 1723,
      "로": 1724,
      "록": 1725,
      "롟": 1726,
      "론": 1727,
      "롣": 1728,
      "롤": 1729,
      "롥": 1730,
      "롧": 1731,
      "롬": 1732,
      "롭": 1733,
      "롮": 1734,
      "롯": 1735,
      "롱": 1736,
      "롲": 1737,
      "롳": 1738,
      "롴": 1739,
      "롵": 1740,
      "롶": 1741,
      "롷": 1742,
      "롸": 1743,
      "롹": 1744,
      "롼": 1745,
      "뢀": 1746,
      "뢈": 1747,
      "뢉": 1748,
      "뢍": 1749,
      "뢔": 1750,
      "뢕": 1751,
      "뢠": 1752,
      "뢨": 1753,
      "뢭": 1754,
      "뢰": 1755,
      "뢱": 1756,
      "뢳": 1757,
      "뢴": 1758,
      "뢶": 1759,
      "뢸": 1760,
      "룀": 1761,
      "룁": 1762,
      "룃": 1763,
      "룄": 1764,
      "룅": 1765,
      "료": 1766,
      "룍": 1767,
      "룏": 1768,
      "룐": 1769,
      "룑": 1770,
      "룓": 1771,
      "룔": 1772,
      "룛": 1773,
      "룜": 1774,
      "룝": 1775,
      "룟": 1776,
      "룡": 1777,
      "룥": 1778,
      "룦": 1779,
      "루": 1780,
      "룩": 1781,
      "룪": 1782,
      "룬": 1783,
      "룯": 1784,
      "룰": 1785,
      "룱": 1786,
      "룳": 1787,
      "룴": 1788,
      "룸": 1789,
      "룹": 1790,
      "룺": 1791,
      "룻": 1792,
      "룽": 1793,
      "뤀": 1794,
      "뤁": 1795,
      "뤂": 1796,
      "뤄": 1797,
      "뤅": 1798,
      "뤈": 1799,
      "뤌": 1800,
      "뤔": 1801,
      "뤕": 1802,
      "뤗": 1803,
      "뤘": 1804,
      "뤙": 1805,
      "뤟": 1806,
      "뤠": 1807,
      "뤡": 1808,
      "뤤": 1809,
      "뤨": 1810,
      "뤩": 1811,
      "뤬": 1812,
      "뤰": 1813,
      "뤳": 1814,
      "뤵": 1815,
      "뤼": 1816,
      "뤽": 1817,
      "륀": 1818,
      "륄": 1819,
      "륌": 1820,
      "륍": 1821,
      "륏": 1822,
      "륐": 1823,
      "륑": 1824,
      "륒": 1825,
      "류": 1826,
      "륙": 1827,
      "륜": 1828,
      "륝": 1829,
      "률": 1830,
      "륡": 1831,
      "륨": 1832,
      "륩": 1833,
      "륫": 1834,
      "륭": 1835,
      "륮": 1836,
      "륰": 1837,
      "륱": 1838,
      "륲": 1839,
      "륳": 1840,
      "르": 1841,
      "륵": 1842,
      "륶": 1843,
      "륷": 1844,
      "른": 1845,
      "륺": 1846,
      "륻": 1847,
      "를": 1848,
      "륽": 1849,
      "륾": 1850,
      "륿": 1851,
      "릁": 1852,
      "릂": 1853,
      "릃": 1854,
      "름": 1855,
      "릅": 1856,
      "릇": 1857,
      "릉": 1858,
      "릊": 1859,
      "릋": 1860,
      "릌": 1861,
      "릍": 1862,
      "릎": 1863,
      "릏": 1864,
      "릐": 1865,
      "릔": 1866,
      "릘": 1867,
      "릚": 1868,
      "릞": 1869,
      "릠": 1870,
      "릡": 1871,
      "릣": 1872,
      "릫": 1873,
      "리": 1874,
      "릭": 1875,
      "릮": 1876,
      "릯": 1877,
      "린": 1878,
      "릳": 1879,
      "릴": 1880,
      "릵": 1881,
      "릷": 1882,
      "림": 1883,
      "립": 1884,
      "릾": 1885,
      "릿": 1886,
      "맀": 1887,
      "링": 1888,
      "맂": 1889,
      "맃": 1890,
      "맄": 1891,
      "맅": 1892,
      "맆": 1893,
      "맇": 1894,
      "마": 1895,
      "막": 1896,
      "맊": 1897,
      "맋": 1898,
      "만": 1899,
      "맍": 1900,
      "많": 1901,
      "맏": 1902,
      "말": 1903,
      "맑": 1904,
      "맒": 1905,
      "맓": 1906,
      "맔": 1907,
      "맕": 1908,
      "맗": 1909,
      "맘": 1910,
      "맙": 1911,
      "맚": 1912,
      "맛": 1913,
      "맜": 1914,
      "망": 1915,
      "맞": 1916,
      "맟": 1917,
      "맠": 1918,
      "맡": 1919,
      "맢": 1920,
      "맣": 1921,
      "매": 1922,
      "맥": 1923,
      "맨": 1924,
      "맪": 1925,
      "맫": 1926,
      "맬": 1927,
      "맳": 1928,
      "맴": 1929,
      "맵": 1930,
      "맷": 1931,
      "맸": 1932,
      "맹": 1933,
      "맺": 1934,
      "맻": 1935,
      "맼": 1936,
      "맽": 1937,
      "맾": 1938,
      "맿": 1939,
      "먀": 1940,
      "먁": 1941,
      "먃": 1942,
      "먄": 1943,
      "먅": 1944,
      "먆": 1945,
      "먈": 1946,
      "먍": 1947,
      "먏": 1948,
      "먐": 1949,
      "먑": 1950,
      "먕": 1951,
      "먖": 1952,
      "먗": 1953,
      "먘": 1954,
      "먙": 1955,
      "먚": 1956,
      "먜": 1957,
      "먝": 1958,
      "먠": 1959,
      "먯": 1960,
      "머": 1961,
      "먹": 1962,
      "먺": 1963,
      "먼": 1964,
      "먽": 1965,
      "먾": 1966,
      "먿": 1967,
      "멀": 1968,
      "멁": 1969,
      "멂": 1970,
      "멆": 1971,
      "멇": 1972,
      "멈": 1973,
      "멉": 1974,
      "멊": 1975,
      "멋": 1976,
      "멌": 1977,
      "멍": 1978,
      "멎": 1979,
      "멏": 1980,
      "멐": 1981,
      "멑": 1982,
      "멒": 1983,
      "멓": 1984,
      "메": 1985,
      "멕": 1986,
      "멘": 1987,
      "멛": 1988,
      "멜": 1989,
      "멞": 1990,
      "멟": 1991,
      "멤": 1992,
      "멥": 1993,
      "멧": 1994,
      "멨": 1995,
      "멩": 1996,
      "멪": 1997,
      "멫": 1998,
      "멬": 1999,
      "멭": 2000,
      "멮": 2001,
      "며": 2002,
      "멱": 2003,
      "면": 2004,
      "멵": 2005,
      "멷": 2006,
      "멸": 2007,
      "멹": 2008,
      "멻": 2009,
      "멽": 2010,
      "멿": 2011,
      "몀": 2012,
      "몁": 2013,
      "몃": 2014,
      "몄": 2015,
      "명": 2016,
      "몆": 2017,
      "몇": 2018,
      "몈": 2019,
      "몉": 2020,
      "몊": 2021,
      "몋": 2022,
      "몌": 2023,
      "몍": 2024,
      "몐": 2025,
      "몔": 2026,
      "몕": 2027,
      "몟": 2028,
      "몡": 2029,
      "몢": 2030,
      "몣": 2031,
      "모": 2032,
      "목": 2033,
      "몪": 2034,
      "몫": 2035,
      "몬": 2036,
      "몭": 2037,
      "몮": 2038,
      "몯": 2039,
      "몰": 2040,
      "몱": 2041,
      "몲": 2042,
      "몳": 2043,
      "몴": 2044,
      "몵": 2045,
      "몷": 2046,
      "몸": 2047,
      "몹": 2048,
      "못": 2049,
      "몼": 2050,
      "몽": 2051,
      "몾": 2052,
      "몿": 2053,
      "뫀": 2054,
      "뫁": 2055,
      "뫂": 2056,
      "뫃": 2057,
      "뫄": 2058,
      "뫅": 2059,
      "뫇": 2060,
      "뫈": 2061,
      "뫊": 2062,
      "뫌": 2063,
      "뫔": 2064,
      "뫕": 2065,
      "뫘": 2066,
      "뫙": 2067,
      "뫟": 2068,
      "뫠": 2069,
      "뫤": 2070,
      "뫨": 2071,
      "뫼": 2072,
      "뫽": 2073,
      "묀": 2074,
      "묄": 2075,
      "묌": 2076,
      "묍": 2077,
      "묏": 2078,
      "묑": 2079,
      "묘": 2080,
      "묙": 2081,
      "묚": 2082,
      "묜": 2083,
      "묟": 2084,
      "묠": 2085,
      "묦": 2086,
      "묨": 2087,
      "묩": 2088,
      "묫": 2089,
      "묬": 2090,
      "묭": 2091,
      "묯": 2092,
      "묱": 2093,
      "묳": 2094,
      "무": 2095,
      "묵": 2096,
      "묶": 2097,
      "묷": 2098,
      "문": 2099,
      "묹": 2100,
      "묺": 2101,
      "묻": 2102,
      "물": 2103,
      "묽": 2104,
      "묾": 2105,
      "뭀": 2106,
      "뭃": 2107,
      "뭄": 2108,
      "뭅": 2109,
      "뭇": 2110,
      "뭈": 2111,
      "뭉": 2112,
      "뭊": 2113,
      "뭋": 2114,
      "뭌": 2115,
      "뭍": 2116,
      "뭎": 2117,
      "뭏": 2118,
      "뭐": 2119,
      "뭔": 2120,
      "뭘": 2121,
      "뭟": 2122,
      "뭠": 2123,
      "뭡": 2124,
      "뭣": 2125,
      "뭤": 2126,
      "뭥": 2127,
      "뭦": 2128,
      "뭩": 2129,
      "뭫": 2130,
      "뭬": 2131,
      "뭭": 2132,
      "뭰": 2133,
      "뭴": 2134,
      "뭵": 2135,
      "뭼": 2136,
      "뭽": 2137,
      "뮁": 2138,
      "뮈": 2139,
      "뮉": 2140,
      "뮌": 2141,
      "뮐": 2142,
      "뮙": 2143,
      "뮛": 2144,
      "뮝": 2145,
      "뮤": 2146,
      "뮥": 2147,
      "뮧": 2148,
      "뮨": 2149,
      "뮫": 2150,
      "뮬": 2151,
      "뮳": 2152,
      "뮴": 2153,
      "뮶": 2154,
      "뮷": 2155,
      "뮹": 2156,
      "뮺": 2157,
      "뮻": 2158,
      "뮽": 2159,
      "므": 2160,
      "믁": 2161,
      "믂": 2162,
      "믄": 2163,
      "믇": 2164,
      "믈": 2165,
      "믌": 2166,
      "믏": 2167,
      "믐": 2168,
      "믑": 2169,
      "믓": 2170,
      "믕": 2171,
      "믖": 2172,
      "믗": 2173,
      "믘": 2174,
      "믛": 2175,
      "믜": 2176,
      "믠": 2177,
      "믨": 2178,
      "믬": 2179,
      "믯": 2180,
      "믱": 2181,
      "미": 2182,
      "믹": 2183,
      "믺": 2184,
      "민": 2185,
      "믽": 2186,
      "믾": 2187,
      "믿": 2188,
      "밀": 2189,
      "밁": 2190,
      "밂": 2191,
      "밇": 2192,
      "밈": 2193,
      "밉": 2194,
      "밊": 2195,
      "밋": 2196,
      "밌": 2197,
      "밍": 2198,
      "밎": 2199,
      "및": 2200,
      "밐": 2201,
      "밑": 2202,
      "밒": 2203,
      "밓": 2204,
      "바": 2205,
      "박": 2206,
      "밖": 2207,
      "밗": 2208,
      "반": 2209,
      "밙": 2210,
      "밚": 2211,
      "받": 2212,
      "발": 2213,
      "밝": 2214,
      "밞": 2215,
      "밟": 2216,
      "밠": 2217,
      "밡": 2218,
      "밢": 2219,
      "밣": 2220,
      "밤": 2221,
      "밥": 2222,
      "밦": 2223,
      "밧": 2224,
      "밨": 2225,
      "방": 2226,
      "밪": 2227,
      "밫": 2228,
      "밬": 2229,
      "밭": 2230,
      "밮": 2231,
      "밯": 2232,
      "배": 2233,
      "백": 2234,
      "밲": 2235,
      "밳": 2236,
      "밴": 2237,
      "밶": 2238,
      "밷": 2239,
      "밸": 2240,
      "밻": 2241,
      "밼": 2242,
      "뱀": 2243,
      "뱁": 2244,
      "뱃": 2245,
      "뱄": 2246,
      "뱅": 2247,
      "뱆": 2248,
      "뱇": 2249,
      "뱈": 2250,
      "뱉": 2251,
      "뱊": 2252,
      "뱋": 2253,
      "뱌": 2254,
      "뱍": 2255,
      "뱎": 2256,
      "뱏": 2257,
      "뱐": 2258,
      "뱒": 2259,
      "뱓": 2260,
      "뱔": 2261,
      "뱕": 2262,
      "뱚": 2263,
      "뱛": 2264,
      "뱜": 2265,
      "뱝": 2266,
      "뱞": 2267,
      "뱟": 2268,
      "뱡": 2269,
      "뱦": 2270,
      "뱨": 2271,
      "뱩": 2272,
      "뱬": 2273,
      "뱸": 2274,
      "뱽": 2275,
      "버": 2276,
      "벅": 2277,
      "벆": 2278,
      "벇": 2279,
      "번": 2280,
      "벉": 2281,
      "벋": 2282,
      "벌": 2283,
      "벍": 2284,
      "벎": 2285,
      "벏": 2286,
      "벐": 2287,
      "벑": 2288,
      "벒": 2289,
      "벓": 2290,
      "범": 2291,
      "법": 2292,
      "벖": 2293,
      "벗": 2294,
      "벘": 2295,
      "벙": 2296,
      "벚": 2297,
      "벛": 2298,
      "벜": 2299,
      "벝": 2300,
      "벞": 2301,
      "벟": 2302,
      "베": 2303,
      "벡": 2304,
      "벢": 2305,
      "벤": 2306,
      "벧": 2307,
      "벨": 2308,
      "벩": 2309,
      "벫": 2310,
      "벭": 2311,
      "벯": 2312,
      "벰": 2313,
      "벱": 2314,
      "벳": 2315,
      "벴": 2316,
      "벵": 2317,
      "벸": 2318,
      "벹": 2319,
      "벼": 2320,
      "벽": 2321,
      "벾": 2322,
      "변": 2323,
      "볂": 2324,
      "볃": 2325,
      "별": 2326,
      "볅": 2327,
      "볈": 2328,
      "볉": 2329,
      "볋": 2330,
      "볌": 2331,
      "볍": 2332,
      "볎": 2333,
      "볏": 2334,
      "볐": 2335,
      "병": 2336,
      "볒": 2337,
      "볓": 2338,
      "볔": 2339,
      "볕": 2340,
      "볖": 2341,
      "볗": 2342,
      "볘": 2343,
      "볜": 2344,
      "볠": 2345,
      "볫": 2346,
      "볱": 2347,
      "보": 2348,
      "복": 2349,
      "볶": 2350,
      "볷": 2351,
      "본": 2352,
      "볹": 2353,
      "볻": 2354,
      "볼": 2355,
      "볽": 2356,
      "볾": 2357,
      "봀": 2358,
      "봁": 2359,
      "봂": 2360,
      "봃": 2361,
      "봄": 2362,
      "봅": 2363,
      "봆": 2364,
      "봇": 2365,
      "봈": 2366,
      "봉": 2367,
      "봊": 2368,
      "봋": 2369,
      "봌": 2370,
      "봍": 2371,
      "봎": 2372,
      "봏": 2373,
      "봐": 2374,
      "봑": 2375,
      "봒": 2376,
      "봔": 2377,
      "봗": 2378,
      "봘": 2379,
      "봙": 2380,
      "봠": 2381,
      "봡": 2382,
      "봣": 2383,
      "봤": 2384,
      "봥": 2385,
      "봨": 2386,
      "봫": 2387,
      "봬": 2388,
      "봭": 2389,
      "봰": 2390,
      "봱": 2391,
      "봴": 2392,
      "봵": 2393,
      "봽": 2394,
      "뵀": 2395,
      "뵁": 2396,
      "뵈": 2397,
      "뵉": 2398,
      "뵌": 2399,
      "뵐": 2400,
      "뵑": 2401,
      "뵘": 2402,
      "뵙": 2403,
      "뵛": 2404,
      "뵜": 2405,
      "뵝": 2406,
      "뵤": 2407,
      "뵥": 2408,
      "뵧": 2409,
      "뵨": 2410,
      "뵫": 2411,
      "뵬": 2412,
      "뵭": 2413,
      "뵲": 2414,
      "뵳": 2415,
      "뵴": 2416,
      "뵵": 2417,
      "뵶": 2418,
      "뵷": 2419,
      "뵸": 2420,
      "뵹": 2421,
      "뵻": 2422,
      "뵼": 2423,
      "부": 2424,
      "북": 2425,
      "붂": 2426,
      "붃": 2427,
      "분": 2428,
      "붅": 2429,
      "붆": 2430,
      "붇": 2431,
      "불": 2432,
      "붉": 2433,
      "붊": 2434,
      "붋": 2435,
      "붍": 2436,
      "붎": 2437,
      "붏": 2438,
      "붐": 2439,
      "붑": 2440,
      "붒": 2441,
      "붓": 2442,
      "붔": 2443,
      "붕": 2444,
      "붖": 2445,
      "붗": 2446,
      "붘": 2447,
      "붙": 2448,
      "붚": 2449,
      "붛": 2450,
      "붜": 2451,
      "붝": 2452,
      "붠": 2453,
      "붤": 2454,
      "붭": 2455,
      "붯": 2456,
      "붰": 2457,
      "붱": 2458,
      "붴": 2459,
      "붵": 2460,
      "붸": 2461,
      "붹": 2462,
      "붼": 2463,
      "붿": 2464,
      "뷀": 2465,
      "뷁": 2466,
      "뷃": 2467,
      "뷇": 2468,
      "뷉": 2469,
      "뷋": 2470,
      "뷍": 2471,
      "뷔": 2472,
      "뷕": 2473,
      "뷘": 2474,
      "뷜": 2475,
      "뷤": 2476,
      "뷥": 2477,
      "뷧": 2478,
      "뷩": 2479,
      "뷫": 2480,
      "뷮": 2481,
      "뷰": 2482,
      "뷱": 2483,
      "뷴": 2484,
      "뷵": 2485,
      "뷷": 2486,
      "뷸": 2487,
      "뷹": 2488,
      "뷼": 2489,
      "븀": 2490,
      "븁": 2491,
      "븃": 2492,
      "븅": 2493,
      "븉": 2494,
      "브": 2495,
      "븍": 2496,
      "븐": 2497,
      "븓": 2498,
      "블": 2499,
      "븕": 2500,
      "븖": 2501,
      "븗": 2502,
      "븘": 2503,
      "븛": 2504,
      "븜": 2505,
      "븝": 2506,
      "븞": 2507,
      "븟": 2508,
      "븠": 2509,
      "븡": 2510,
      "븥": 2511,
      "븧": 2512,
      "븨": 2513,
      "븩": 2514,
      "븬": 2515,
      "븰": 2516,
      "븸": 2517,
      "븽": 2518,
      "븿": 2519,
      "빂": 2520,
      "비": 2521,
      "빅": 2522,
      "빆": 2523,
      "빈": 2524,
      "빋": 2525,
      "빌": 2526,
      "빍": 2527,
      "빎": 2528,
      "빏": 2529,
      "빒": 2530,
      "빔": 2531,
      "빕": 2532,
      "빗": 2533,
      "빘": 2534,
      "빙": 2535,
      "빚": 2536,
      "빛": 2537,
      "빜": 2538,
      "빝": 2539,
      "빞": 2540,
      "빟": 2541,
      "빠": 2542,
      "빡": 2543,
      "빢": 2544,
      "빣": 2545,
      "빤": 2546,
      "빥": 2547,
      "빧": 2548,
      "빨": 2549,
      "빩": 2550,
      "빪": 2551,
      "빫": 2552,
      "빬": 2553,
      "빮": 2554,
      "빰": 2555,
      "빱": 2556,
      "빳": 2557,
      "빴": 2558,
      "빵": 2559,
      "빶": 2560,
      "빷": 2561,
      "빸": 2562,
      "빹": 2563,
      "빺": 2564,
      "빻": 2565,
      "빼": 2566,
      "빽": 2567,
      "뺀": 2568,
      "뺃": 2569,
      "뺄": 2570,
      "뺌": 2571,
      "뺍": 2572,
      "뺏": 2573,
      "뺐": 2574,
      "뺑": 2575,
      "뺒": 2576,
      "뺓": 2577,
      "뺕": 2578,
      "뺘": 2579,
      "뺙": 2580,
      "뺛": 2581,
      "뺜": 2582,
      "뺝": 2583,
      "뺟": 2584,
      "뺠": 2585,
      "뺡": 2586,
      "뺢": 2587,
      "뺥": 2588,
      "뺦": 2589,
      "뺧": 2590,
      "뺨": 2591,
      "뺩": 2592,
      "뺭": 2593,
      "뺮": 2594,
      "뺳": 2595,
      "뺴": 2596,
      "뺵": 2597,
      "뺶": 2598,
      "뺸": 2599,
      "뺹": 2600,
      "뺼": 2601,
      "뻄": 2602,
      "뻇": 2603,
      "뻈": 2604,
      "뻉": 2605,
      "뻐": 2606,
      "뻑": 2607,
      "뻒": 2608,
      "뻔": 2609,
      "뻕": 2610,
      "뻖": 2611,
      "뻗": 2612,
      "뻘": 2613,
      "뻙": 2614,
      "뻚": 2615,
      "뻛": 2616,
      "뻞": 2617,
      "뻟": 2618,
      "뻠": 2619,
      "뻡": 2620,
      "뻢": 2621,
      "뻣": 2622,
      "뻤": 2623,
      "뻥": 2624,
      "뻦": 2625,
      "뻨": 2626,
      "뻩": 2627,
      "뻪": 2628,
      "뻬": 2629,
      "뻭": 2630,
      "뻰": 2631,
      "뻴": 2632,
      "뻼": 2633,
      "뻿": 2634,
      "뼀": 2635,
      "뼁": 2636,
      "뼇": 2637,
      "뼈": 2638,
      "뼉": 2639,
      "뼌": 2640,
      "뼏": 2641,
      "뼐": 2642,
      "뼘": 2643,
      "뼙": 2644,
      "뼛": 2645,
      "뼜": 2646,
      "뼝": 2647,
      "뼞": 2648,
      "뼠": 2649,
      "뼡": 2650,
      "뼢": 2651,
      "뼤": 2652,
      "뼥": 2653,
      "뼬": 2654,
      "뼱": 2655,
      "뼵": 2656,
      "뼸": 2657,
      "뼼": 2658,
      "뽀": 2659,
      "뽁": 2660,
      "뽂": 2661,
      "뽃": 2662,
      "뽄": 2663,
      "뽇": 2664,
      "뽈": 2665,
      "뽍": 2666,
      "뽐": 2667,
      "뽑": 2668,
      "뽒": 2669,
      "뽓": 2670,
      "뽔": 2671,
      "뽕": 2672,
      "뽖": 2673,
      "뽘": 2674,
      "뽚": 2675,
      "뽛": 2676,
      "뽜": 2677,
      "뽝": 2678,
      "뽟": 2679,
      "뽥": 2680,
      "뽧": 2681,
      "뽭": 2682,
      "뽱": 2683,
      "뽷": 2684,
      "뽸": 2685,
      "뾂": 2686,
      "뾃": 2687,
      "뾄": 2688,
      "뾅": 2689,
      "뾆": 2690,
      "뾇": 2691,
      "뾔": 2692,
      "뾰": 2693,
      "뾱": 2694,
      "뾲": 2695,
      "뾴": 2696,
      "뾸": 2697,
      "뾹": 2698,
      "뾻": 2699,
      "뾼": 2700,
      "뿁": 2701,
      "뿅": 2702,
      "뿉": 2703,
      "뿋": 2704,
      "뿌": 2705,
      "뿍": 2706,
      "뿎": 2707,
      "뿏": 2708,
      "뿐": 2709,
      "뿑": 2710,
      "뿒": 2711,
      "뿓": 2712,
      "뿔": 2713,
      "뿕": 2714,
      "뿗": 2715,
      "뿘": 2716,
      "뿙": 2717,
      "뿚": 2718,
      "뿛": 2719,
      "뿜": 2720,
      "뿝": 2721,
      "뿞": 2722,
      "뿟": 2723,
      "뿠": 2724,
      "뿡": 2725,
      "뿤": 2726,
      "뿦": 2727,
      "뿧": 2728,
      "뿨": 2729,
      "뿩": 2730,
      "뿰": 2731,
      "쀄": 2732,
      "쀅": 2733,
      "쀆": 2734,
      "쀍": 2735,
      "쀎": 2736,
      "쀏": 2737,
      "쀐": 2738,
      "쀑": 2739,
      "쀒": 2740,
      "쀓": 2741,
      "쀠": 2742,
      "쀬": 2743,
      "쀲": 2744,
      "쀵": 2745,
      "쀼": 2746,
      "쀽": 2747,
      "쀾": 2748,
      "쀿": 2749,
      "쁀": 2750,
      "쁅": 2751,
      "쁋": 2752,
      "쁌": 2753,
      "쁎": 2754,
      "쁏": 2755,
      "쁐": 2756,
      "쁑": 2757,
      "쁓": 2758,
      "쁕": 2759,
      "쁖": 2760,
      "쁘": 2761,
      "쁙": 2762,
      "쁚": 2763,
      "쁜": 2764,
      "쁠": 2765,
      "쁢": 2766,
      "쁥": 2767,
      "쁨": 2768,
      "쁩": 2769,
      "쁫": 2770,
      "쁭": 2771,
      "쁰": 2772,
      "쁴": 2773,
      "쁶": 2774,
      "삁": 2775,
      "삂": 2776,
      "삐": 2777,
      "삑": 2778,
      "삒": 2779,
      "삔": 2780,
      "삘": 2781,
      "삚": 2782,
      "삜": 2783,
      "삝": 2784,
      "삠": 2785,
      "삡": 2786,
      "삣": 2787,
      "삤": 2788,
      "삥": 2789,
      "삧": 2790,
      "사": 2791,
      "삭": 2792,
      "삮": 2793,
      "삯": 2794,
      "산": 2795,
      "삱": 2796,
      "삲": 2797,
      "삳": 2798,
      "살": 2799,
      "삵": 2800,
      "삶": 2801,
      "삷": 2802,
      "삺": 2803,
      "삻": 2804,
      "삼": 2805,
      "삽": 2806,
      "삾": 2807,
      "삿": 2808,
      "샀": 2809,
      "상": 2810,
      "샂": 2811,
      "샃": 2812,
      "샄": 2813,
      "샅": 2814,
      "샆": 2815,
      "샇": 2816,
      "새": 2817,
      "색": 2818,
      "샊": 2819,
      "샌": 2820,
      "샏": 2821,
      "샐": 2822,
      "샑": 2823,
      "샒": 2824,
      "샓": 2825,
      "샘": 2826,
      "샙": 2827,
      "샛": 2828,
      "샜": 2829,
      "생": 2830,
      "샞": 2831,
      "샟": 2832,
      "샠": 2833,
      "샡": 2834,
      "샣": 2835,
      "샤": 2836,
      "샥": 2837,
      "샦": 2838,
      "샨": 2839,
      "샪": 2840,
      "샫": 2841,
      "샬": 2842,
      "샴": 2843,
      "샵": 2844,
      "샷": 2845,
      "샸": 2846,
      "샹": 2847,
      "샼": 2848,
      "샽": 2849,
      "샾": 2850,
      "섀": 2851,
      "섁": 2852,
      "섄": 2853,
      "섅": 2854,
      "섈": 2855,
      "섊": 2856,
      "섏": 2857,
      "섐": 2858,
      "섑": 2859,
      "섓": 2860,
      "섕": 2861,
      "섘": 2862,
      "서": 2863,
      "석": 2864,
      "섞": 2865,
      "섟": 2866,
      "선": 2867,
      "섡": 2868,
      "섢": 2869,
      "섣": 2870,
      "설": 2871,
      "섥": 2872,
      "섦": 2873,
      "섧": 2874,
      "섨": 2875,
      "섩": 2876,
      "섪": 2877,
      "섫": 2878,
      "섬": 2879,
      "섭": 2880,
      "섮": 2881,
      "섯": 2882,
      "섰": 2883,
      "성": 2884,
      "섲": 2885,
      "섳": 2886,
      "섴": 2887,
      "섵": 2888,
      "섶": 2889,
      "섷": 2890,
      "세": 2891,
      "섹": 2892,
      "섺": 2893,
      "섻": 2894,
      "센": 2895,
      "섾": 2896,
      "섿": 2897,
      "셀": 2898,
      "셁": 2899,
      "셈": 2900,
      "셉": 2901,
      "셊": 2902,
      "셋": 2903,
      "셌": 2904,
      "셍": 2905,
      "셐": 2906,
      "셑": 2907,
      "셒": 2908,
      "셔": 2909,
      "셕": 2910,
      "셖": 2911,
      "셗": 2912,
      "션": 2913,
      "셙": 2914,
      "셛": 2915,
      "셜": 2916,
      "셝": 2917,
      "셟": 2918,
      "셤": 2919,
      "셥": 2920,
      "셧": 2921,
      "셨": 2922,
      "셩": 2923,
      "셫": 2924,
      "셬": 2925,
      "셮": 2926,
      "셯": 2927,
      "셰": 2928,
      "셱": 2929,
      "셴": 2930,
      "셸": 2931,
      "솀": 2932,
      "솁": 2933,
      "솂": 2934,
      "솃": 2935,
      "솄": 2936,
      "솅": 2937,
      "솈": 2938,
      "솊": 2939,
      "소": 2940,
      "속": 2941,
      "솎": 2942,
      "솏": 2943,
      "손": 2944,
      "솑": 2945,
      "솒": 2946,
      "솓": 2947,
      "솔": 2948,
      "솖": 2949,
      "솘": 2950,
      "솜": 2951,
      "솝": 2952,
      "솟": 2953,
      "송": 2954,
      "솢": 2955,
      "솣": 2956,
      "솤": 2957,
      "솥": 2958,
      "솦": 2959,
      "솧": 2960,
      "솨": 2961,
      "솩": 2962,
      "솬": 2963,
      "솰": 2964,
      "솸": 2965,
      "솹": 2966,
      "솻": 2967,
      "솽": 2968,
      "쇄": 2969,
      "쇅": 2970,
      "쇈": 2971,
      "쇌": 2972,
      "쇐": 2973,
      "쇔": 2974,
      "쇗": 2975,
      "쇘": 2976,
      "쇙": 2977,
      "쇝": 2978,
      "쇠": 2979,
      "쇡": 2980,
      "쇤": 2981,
      "쇨": 2982,
      "쇰": 2983,
      "쇱": 2984,
      "쇳": 2985,
      "쇴": 2986,
      "쇵": 2987,
      "쇻": 2988,
      "쇼": 2989,
      "쇽": 2990,
      "숀": 2991,
      "숁": 2992,
      "숄": 2993,
      "숌": 2994,
      "숍": 2995,
      "숏": 2996,
      "숑": 2997,
      "숔": 2998,
      "숕": 2999,
      "숖": 3000,
      "수": 3001,
      "숙": 3002,
      "숚": 3003,
      "순": 3004,
      "숝": 3005,
      "숞": 3006,
      "숟": 3007,
      "술": 3008,
      "숡": 3009,
      "숤": 3010,
      "숧": 3011,
      "숨": 3012,
      "숩": 3013,
      "숫": 3014,
      "숬": 3015,
      "숭": 3016,
      "숮": 3017,
      "숯": 3018,
      "숰": 3019,
      "숱": 3020,
      "숲": 3021,
      "숳": 3022,
      "숴": 3023,
      "숸": 3024,
      "숼": 3025,
      "쉄": 3026,
      "쉅": 3027,
      "쉇": 3028,
      "쉈": 3029,
      "쉉": 3030,
      "쉐": 3031,
      "쉑": 3032,
      "쉔": 3033,
      "쉕": 3034,
      "쉘": 3035,
      "쉙": 3036,
      "쉛": 3037,
      "쉜": 3038,
      "쉞": 3039,
      "쉠": 3040,
      "쉡": 3041,
      "쉣": 3042,
      "쉥": 3043,
      "쉩": 3044,
      "쉪": 3045,
      "쉬": 3046,
      "쉭": 3047,
      "쉰": 3048,
      "쉴": 3049,
      "쉼": 3050,
      "쉽": 3051,
      "쉾": 3052,
      "쉿": 3053,
      "슁": 3054,
      "슂": 3055,
      "슅": 3056,
      "슆": 3057,
      "슈": 3058,
      "슉": 3059,
      "슊": 3060,
      "슌": 3061,
      "슐": 3062,
      "슘": 3063,
      "슙": 3064,
      "슛": 3065,
      "슝": 3066,
      "슟": 3067,
      "슠": 3068,
      "슡": 3069,
      "슢": 3070,
      "스": 3071,
      "슥": 3072,
      "슦": 3073,
      "슨": 3074,
      "슫": 3075,
      "슬": 3076,
      "슭": 3077,
      "슮": 3078,
      "슯": 3079,
      "슲": 3080,
      "슳": 3081,
      "슴": 3082,
      "습": 3083,
      "슶": 3084,
      "슷": 3085,
      "슸": 3086,
      "승": 3087,
      "슺": 3088,
      "슻": 3089,
      "슼": 3090,
      "슽": 3091,
      "슾": 3092,
      "슿": 3093,
      "싀": 3094,
      "싁": 3095,
      "싄": 3096,
      "싈": 3097,
      "싐": 3098,
      "싑": 3099,
      "싔": 3100,
      "싕": 3101,
      "싖": 3102,
      "싘": 3103,
      "싚": 3104,
      "싛": 3105,
      "시": 3106,
      "식": 3107,
      "싞": 3108,
      "싟": 3109,
      "신": 3110,
      "싡": 3111,
      "싢": 3112,
      "싣": 3113,
      "실": 3114,
      "싥": 3115,
      "싦": 3116,
      "싧": 3117,
      "싨": 3118,
      "싩": 3119,
      "싪": 3120,
      "싫": 3121,
      "심": 3122,
      "십": 3123,
      "싮": 3124,
      "싯": 3125,
      "싰": 3126,
      "싱": 3127,
      "싲": 3128,
      "싳": 3129,
      "싴": 3130,
      "싵": 3131,
      "싶": 3132,
      "싷": 3133,
      "싸": 3134,
      "싹": 3135,
      "싺": 3136,
      "싻": 3137,
      "싼": 3138,
      "싽": 3139,
      "싾": 3140,
      "싿": 3141,
      "쌀": 3142,
      "쌂": 3143,
      "쌇": 3144,
      "쌈": 3145,
      "쌉": 3146,
      "쌋": 3147,
      "쌌": 3148,
      "쌍": 3149,
      "쌏": 3150,
      "쌐": 3151,
      "쌑": 3152,
      "쌒": 3153,
      "쌓": 3154,
      "쌔": 3155,
      "쌕": 3156,
      "쌘": 3157,
      "쌙": 3158,
      "쌚": 3159,
      "쌛": 3160,
      "쌜": 3161,
      "쌞": 3162,
      "쌟": 3163,
      "쌤": 3164,
      "쌥": 3165,
      "쌧": 3166,
      "쌨": 3167,
      "쌩": 3168,
      "쌯": 3169,
      "쌰": 3170,
      "쌱": 3171,
      "쌴": 3172,
      "쌵": 3173,
      "쌸": 3174,
      "쌻": 3175,
      "썀": 3176,
      "썁": 3177,
      "썅": 3178,
      "썋": 3179,
      "썌": 3180,
      "썍": 3181,
      "썎": 3182,
      "썐": 3183,
      "썖": 3184,
      "썜": 3185,
      "썠": 3186,
      "썡": 3187,
      "써": 3188,
      "썩": 3189,
      "썪": 3190,
      "썬": 3191,
      "썭": 3192,
      "썮": 3193,
      "썯": 3194,
      "썰": 3195,
      "썱": 3196,
      "썲": 3197,
      "썷": 3198,
      "썸": 3199,
      "썹": 3200,
      "썻": 3201,
      "썼": 3202,
      "썽": 3203,
      "썾": 3204,
      "쎀": 3205,
      "쎂": 3206,
      "쎃": 3207,
      "쎄": 3208,
      "쎅": 3209,
      "쎆": 3210,
      "쎈": 3211,
      "쎌": 3212,
      "쎔": 3213,
      "쎕": 3214,
      "쎗": 3215,
      "쎘": 3216,
      "쎙": 3217,
      "쎠": 3218,
      "쎤": 3219,
      "쎥": 3220,
      "쎨": 3221,
      "쎳": 3222,
      "쎴": 3223,
      "쎵": 3224,
      "쎼": 3225,
      "쎽": 3226,
      "쎾": 3227,
      "쏀": 3228,
      "쏄": 3229,
      "쏏": 3230,
      "쏘": 3231,
      "쏙": 3232,
      "쏚": 3233,
      "쏛": 3234,
      "쏜": 3235,
      "쏝": 3236,
      "쏟": 3237,
      "쏠": 3238,
      "쏢": 3239,
      "쏧": 3240,
      "쏨": 3241,
      "쏩": 3242,
      "쏫": 3243,
      "쏬": 3244,
      "쏭": 3245,
      "쏱": 3246,
      "쏲": 3247,
      "쏳": 3248,
      "쏴": 3249,
      "쏵": 3250,
      "쏸": 3251,
      "쏼": 3252,
      "쏽": 3253,
      "쐇": 3254,
      "쐈": 3255,
      "쐉": 3256,
      "쐌": 3257,
      "쐏": 3258,
      "쐐": 3259,
      "쐑": 3260,
      "쐘": 3261,
      "쐙": 3262,
      "쐤": 3263,
      "쐬": 3264,
      "쐭": 3265,
      "쐰": 3266,
      "쐴": 3267,
      "쐼": 3268,
      "쐽": 3269,
      "쑀": 3270,
      "쑁": 3271,
      "쑈": 3272,
      "쑉": 3273,
      "쑊": 3274,
      "쑌": 3275,
      "쑍": 3276,
      "쑐": 3277,
      "쑘": 3278,
      "쑛": 3279,
      "쑝": 3280,
      "쑞": 3281,
      "쑤": 3282,
      "쑥": 3283,
      "쑦": 3284,
      "쑨": 3285,
      "쑩": 3286,
      "쑫": 3287,
      "쑬": 3288,
      "쑴": 3289,
      "쑵": 3290,
      "쑷": 3291,
      "쑹": 3292,
      "쑻": 3293,
      "쒀": 3294,
      "쒂": 3295,
      "쒈": 3296,
      "쒓": 3297,
      "쒔": 3298,
      "쒜": 3299,
      "쒠": 3300,
      "쒭": 3301,
      "쒯": 3302,
      "쒰": 3303,
      "쒸": 3304,
      "쒹": 3305,
      "쒼": 3306,
      "쓉": 3307,
      "쓔": 3308,
      "쓕": 3309,
      "쓖": 3310,
      "쓘": 3311,
      "쓚": 3312,
      "쓜": 3313,
      "쓧": 3314,
      "쓩": 3315,
      "쓬": 3316,
      "쓰": 3317,
      "쓱": 3318,
      "쓲": 3319,
      "쓴": 3320,
      "쓷": 3321,
      "쓸": 3322,
      "쓹": 3323,
      "쓺": 3324,
      "쓿": 3325,
      "씀": 3326,
      "씁": 3327,
      "씃": 3328,
      "씄": 3329,
      "씅": 3330,
      "씇": 3331,
      "씉": 3332,
      "씋": 3333,
      "씌": 3334,
      "씍": 3335,
      "씐": 3336,
      "씔": 3337,
      "씜": 3338,
      "씝": 3339,
      "씠": 3340,
      "씡": 3341,
      "씤": 3342,
      "씥": 3343,
      "씧": 3344,
      "씨": 3345,
      "씩": 3346,
      "씪": 3347,
      "씬": 3348,
      "씯": 3349,
      "씰": 3350,
      "씸": 3351,
      "씹": 3352,
      "씻": 3353,
      "씼": 3354,
      "씽": 3355,
      "앀": 3356,
      "앁": 3357,
      "앂": 3358,
      "앃": 3359,
      "아": 3360,
      "악": 3361,
      "앆": 3362,
      "앇": 3363,
      "안": 3364,
      "앉": 3365,
      "않": 3366,
      "앋": 3367,
      "알": 3368,
      "앍": 3369,
      "앎": 3370,
      "앏": 3371,
      "앐": 3372,
      "앑": 3373,
      "앒": 3374,
      "앓": 3375,
      "암": 3376,
      "압": 3377,
      "앖": 3378,
      "앗": 3379,
      "았": 3380,
      "앙": 3381,
      "앚": 3382,
      "앛": 3383,
      "앜": 3384,
      "앝": 3385,
      "앞": 3386,
      "앟": 3387,
      "애": 3388,
      "액": 3389,
      "앢": 3390,
      "앤": 3391,
      "앦": 3392,
      "앧": 3393,
      "앨": 3394,
      "앩": 3395,
      "앫": 3396,
      "앰": 3397,
      "앱": 3398,
      "앲": 3399,
      "앳": 3400,
      "앴": 3401,
      "앵": 3402,
      "앶": 3403,
      "앸": 3404,
      "앹": 3405,
      "앺": 3406,
      "앻": 3407,
      "야": 3408,
      "약": 3409,
      "앾": 3410,
      "앿": 3411,
      "얀": 3412,
      "얂": 3413,
      "얃": 3414,
      "얄": 3415,
      "얅": 3416,
      "얆": 3417,
      "얇": 3418,
      "얉": 3419,
      "얊": 3420,
      "얋": 3421,
      "얌": 3422,
      "얍": 3423,
      "얎": 3424,
      "얏": 3425,
      "얐": 3426,
      "양": 3427,
      "얒": 3428,
      "얓": 3429,
      "얔": 3430,
      "얕": 3431,
      "얖": 3432,
      "얗": 3433,
      "얘": 3434,
      "얙": 3435,
      "얜": 3436,
      "얠": 3437,
      "얨": 3438,
      "얩": 3439,
      "얫": 3440,
      "얬": 3441,
      "얭": 3442,
      "어": 3443,
      "억": 3444,
      "얶": 3445,
      "얷": 3446,
      "언": 3447,
      "얹": 3448,
      "얺": 3449,
      "얻": 3450,
      "얼": 3451,
      "얽": 3452,
      "얾": 3453,
      "얿": 3454,
      "엃": 3455,
      "엄": 3456,
      "업": 3457,
      "없": 3458,
      "엇": 3459,
      "었": 3460,
      "엉": 3461,
      "엊": 3462,
      "엋": 3463,
      "엌": 3464,
      "엍": 3465,
      "엎": 3466,
      "엏": 3467,
      "에": 3468,
      "엑": 3469,
      "엓": 3470,
      "엔": 3471,
      "엕": 3472,
      "엗": 3473,
      "엘": 3474,
      "엙": 3475,
      "엜": 3476,
      "엞": 3477,
      "엟": 3478,
      "엠": 3479,
      "엡": 3480,
      "엢": 3481,
      "엣": 3482,
      "엤": 3483,
      "엥": 3484,
      "엦": 3485,
      "엨": 3486,
      "엩": 3487,
      "엪": 3488,
      "엫": 3489,
      "여": 3490,
      "역": 3491,
      "엮": 3492,
      "엯": 3493,
      "연": 3494,
      "엱": 3495,
      "엲": 3496,
      "엳": 3497,
      "열": 3498,
      "엵": 3499,
      "엶": 3500,
      "엷": 3501,
      "엸": 3502,
      "엹": 3503,
      "엺": 3504,
      "엻": 3505,
      "염": 3506,
      "엽": 3507,
      "엾": 3508,
      "엿": 3509,
      "였": 3510,
      "영": 3511,
      "옂": 3512,
      "옃": 3513,
      "옄": 3514,
      "옅": 3515,
      "옆": 3516,
      "옇": 3517,
      "예": 3518,
      "옉": 3519,
      "옌": 3520,
      "옏": 3521,
      "옐": 3522,
      "옒": 3523,
      "옘": 3524,
      "옙": 3525,
      "옛": 3526,
      "옜": 3527,
      "옝": 3528,
      "옞": 3529,
      "옟": 3530,
      "옠": 3531,
      "옡": 3532,
      "옢": 3533,
      "옣": 3534,
      "오": 3535,
      "옥": 3536,
      "옦": 3537,
      "옧": 3538,
      "온": 3539,
      "옪": 3540,
      "옫": 3541,
      "올": 3542,
      "옭": 3543,
      "옮": 3544,
      "옯": 3545,
      "옰": 3546,
      "옱": 3547,
      "옲": 3548,
      "옳": 3549,
      "옴": 3550,
      "옵": 3551,
      "옶": 3552,
      "옷": 3553,
      "옸": 3554,
      "옹": 3555,
      "옺": 3556,
      "옻": 3557,
      "옼": 3558,
      "옽": 3559,
      "옾": 3560,
      "옿": 3561,
      "와": 3562,
      "왁": 3563,
      "왂": 3564,
      "왃": 3565,
      "완": 3566,
      "왇": 3567,
      "왈": 3568,
      "왉": 3569,
      "왐": 3570,
      "왑": 3571,
      "왓": 3572,
      "왔": 3573,
      "왕": 3574,
      "왘": 3575,
      "왙": 3576,
      "왚": 3577,
      "왛": 3578,
      "왜": 3579,
      "왝": 3580,
      "왠": 3581,
      "왤": 3582,
      "왦": 3583,
      "왧": 3584,
      "왬": 3585,
      "왭": 3586,
      "왯": 3587,
      "왰": 3588,
      "왱": 3589,
      "왳": 3590,
      "왴": 3591,
      "왶": 3592,
      "왷": 3593,
      "외": 3594,
      "왹": 3595,
      "왼": 3596,
      "왿": 3597,
      "욀": 3598,
      "욈": 3599,
      "욉": 3600,
      "욋": 3601,
      "욌": 3602,
      "욍": 3603,
      "욎": 3604,
      "욓": 3605,
      "요": 3606,
      "욕": 3607,
      "욗": 3608,
      "욘": 3609,
      "욙": 3610,
      "욚": 3611,
      "욛": 3612,
      "욜": 3613,
      "욝": 3614,
      "욟": 3615,
      "욡": 3616,
      "욢": 3617,
      "욣": 3618,
      "욤": 3619,
      "욥": 3620,
      "욦": 3621,
      "욧": 3622,
      "욨": 3623,
      "용": 3624,
      "욪": 3625,
      "욬": 3626,
      "욭": 3627,
      "욮": 3628,
      "욯": 3629,
      "우": 3630,
      "욱": 3631,
      "욲": 3632,
      "욳": 3633,
      "운": 3634,
      "욵": 3635,
      "욶": 3636,
      "욷": 3637,
      "울": 3638,
      "욹": 3639,
      "욺": 3640,
      "욼": 3641,
      "욽": 3642,
      "욿": 3643,
      "움": 3644,
      "웁": 3645,
      "웂": 3646,
      "웃": 3647,
      "웄": 3648,
      "웅": 3649,
      "웆": 3650,
      "웇": 3651,
      "웈": 3652,
      "웉": 3653,
      "웊": 3654,
      "웋": 3655,
      "워": 3656,
      "웍": 3657,
      "원": 3658,
      "웑": 3659,
      "웒": 3660,
      "웓": 3661,
      "월": 3662,
      "웕": 3663,
      "웖": 3664,
      "웗": 3665,
      "웚": 3666,
      "웛": 3667,
      "웜": 3668,
      "웝": 3669,
      "웞": 3670,
      "웟": 3671,
      "웠": 3672,
      "웡": 3673,
      "웣": 3674,
      "웤": 3675,
      "웥": 3676,
      "웦": 3677,
      "웧": 3678,
      "웨": 3679,
      "웩": 3680,
      "웬": 3681,
      "웰": 3682,
      "웱": 3683,
      "웳": 3684,
      "웴": 3685,
      "웸": 3686,
      "웹": 3687,
      "웺": 3688,
      "웻": 3689,
      "웽": 3690,
      "윀": 3691,
      "윁": 3692,
      "위": 3693,
      "윅": 3694,
      "윈": 3695,
      "윋": 3696,
      "윌": 3697,
      "윐": 3698,
      "윔": 3699,
      "윕": 3700,
      "윖": 3701,
      "윗": 3702,
      "윘": 3703,
      "윙": 3704,
      "윚": 3705,
      "윛": 3706,
      "윜": 3707,
      "윝": 3708,
      "윞": 3709,
      "윟": 3710,
      "유": 3711,
      "육": 3712,
      "윢": 3713,
      "윤": 3714,
      "윥": 3715,
      "윧": 3716,
      "율": 3717,
      "윪": 3718,
      "윬": 3719,
      "윮": 3720,
      "윯": 3721,
      "윰": 3722,
      "윱": 3723,
      "윲": 3724,
      "윳": 3725,
      "윴": 3726,
      "융": 3727,
      "윶": 3728,
      "윷": 3729,
      "윸": 3730,
      "윺": 3731,
      "윻": 3732,
      "으": 3733,
      "윽": 3734,
      "윾": 3735,
      "은": 3736,
      "읁": 3737,
      "읂": 3738,
      "읃": 3739,
      "을": 3740,
      "읅": 3741,
      "읆": 3742,
      "읇": 3743,
      "읈": 3744,
      "읉": 3745,
      "읊": 3746,
      "읋": 3747,
      "음": 3748,
      "읍": 3749,
      "읎": 3750,
      "읏": 3751,
      "읐": 3752,
      "응": 3753,
      "읒": 3754,
      "읓": 3755,
      "읔": 3756,
      "읕": 3757,
      "읖": 3758,
      "읗": 3759,
      "의": 3760,
      "읙": 3761,
      "읚": 3762,
      "읜": 3763,
      "읠": 3764,
      "읤": 3765,
      "읨": 3766,
      "읩": 3767,
      "읪": 3768,
      "읫": 3769,
      "읬": 3770,
      "읭": 3771,
      "읮": 3772,
      "읯": 3773,
      "읰": 3774,
      "읲": 3775,
      "읳": 3776,
      "이": 3777,
      "익": 3778,
      "읶": 3779,
      "읷": 3780,
      "인": 3781,
      "읹": 3782,
      "읺": 3783,
      "읻": 3784,
      "일": 3785,
      "읽": 3786,
      "읾": 3787,
      "읿": 3788,
      "잀": 3789,
      "잂": 3790,
      "잃": 3791,
      "임": 3792,
      "입": 3793,
      "잆": 3794,
      "잇": 3795,
      "있": 3796,
      "잉": 3797,
      "잊": 3798,
      "잋": 3799,
      "잌": 3800,
      "잍": 3801,
      "잎": 3802,
      "잏": 3803,
      "자": 3804,
      "작": 3805,
      "잒": 3806,
      "잓": 3807,
      "잔": 3808,
      "잕": 3809,
      "잖": 3810,
      "잗": 3811,
      "잘": 3812,
      "잙": 3813,
      "잚": 3814,
      "잛": 3815,
      "잝": 3816,
      "잞": 3817,
      "잟": 3818,
      "잠": 3819,
      "잡": 3820,
      "잢": 3821,
      "잣": 3822,
      "잤": 3823,
      "장": 3824,
      "잦": 3825,
      "잧": 3826,
      "잨": 3827,
      "잩": 3828,
      "잪": 3829,
      "잫": 3830,
      "재": 3831,
      "잭": 3832,
      "잰": 3833,
      "잲": 3834,
      "잳": 3835,
      "잴": 3836,
      "잶": 3837,
      "잼": 3838,
      "잽": 3839,
      "잾": 3840,
      "잿": 3841,
      "쟀": 3842,
      "쟁": 3843,
      "쟂": 3844,
      "쟃": 3845,
      "쟄": 3846,
      "쟆": 3847,
      "쟇": 3848,
      "쟈": 3849,
      "쟉": 3850,
      "쟌": 3851,
      "쟎": 3852,
      "쟏": 3853,
      "쟐": 3854,
      "쟑": 3855,
      "쟔": 3856,
      "쟕": 3857,
      "쟗": 3858,
      "쟘": 3859,
      "쟙": 3860,
      "쟛": 3861,
      "쟜": 3862,
      "쟝": 3863,
      "쟞": 3864,
      "쟟": 3865,
      "쟠": 3866,
      "쟤": 3867,
      "쟥": 3868,
      "쟨": 3869,
      "쟬": 3870,
      "쟴": 3871,
      "쟸": 3872,
      "쟹": 3873,
      "저": 3874,
      "적": 3875,
      "젂": 3876,
      "젃": 3877,
      "전": 3878,
      "젅": 3879,
      "젆": 3880,
      "젇": 3881,
      "절": 3882,
      "젉": 3883,
      "젊": 3884,
      "젋": 3885,
      "젌": 3886,
      "젎": 3887,
      "젏": 3888,
      "점": 3889,
      "접": 3890,
      "젒": 3891,
      "젓": 3892,
      "젔": 3893,
      "정": 3894,
      "젖": 3895,
      "젗": 3896,
      "젘": 3897,
      "젙": 3898,
      "젚": 3899,
      "젛": 3900,
      "제": 3901,
      "젝": 3902,
      "젞": 3903,
      "젟": 3904,
      "젠": 3905,
      "젡": 3906,
      "젣": 3907,
      "젤": 3908,
      "젧": 3909,
      "젫": 3910,
      "젬": 3911,
      "젭": 3912,
      "젯": 3913,
      "젰": 3914,
      "젱": 3915,
      "젲": 3916,
      "젴": 3917,
      "젵": 3918,
      "젶": 3919,
      "젷": 3920,
      "져": 3921,
      "젹": 3922,
      "젺": 3923,
      "젻": 3924,
      "젼": 3925,
      "젾": 3926,
      "젿": 3927,
      "졀": 3928,
      "졁": 3929,
      "졂": 3930,
      "졇": 3931,
      "졈": 3932,
      "졉": 3933,
      "졊": 3934,
      "졋": 3935,
      "졌": 3936,
      "졍": 3937,
      "졎": 3938,
      "졏": 3939,
      "졐": 3940,
      "졑": 3941,
      "졒": 3942,
      "졓": 3943,
      "졔": 3944,
      "졕": 3945,
      "졗": 3946,
      "졘": 3947,
      "졛": 3948,
      "졜": 3949,
      "졧": 3950,
      "졨": 3951,
      "졩": 3952,
      "조": 3953,
      "족": 3954,
      "졳": 3955,
      "존": 3956,
      "졵": 3957,
      "졶": 3958,
      "졷": 3959,
      "졸": 3960,
      "졺": 3961,
      "졽": 3962,
      "졾": 3963,
      "졿": 3964,
      "좀": 3965,
      "좁": 3966,
      "좂": 3967,
      "좃": 3968,
      "좄": 3969,
      "종": 3970,
      "좆": 3971,
      "좇": 3972,
      "좈": 3973,
      "좉": 3974,
      "좊": 3975,
      "좋": 3976,
      "좌": 3977,
      "좍": 3978,
      "좐": 3979,
      "좔": 3980,
      "좜": 3981,
      "좝": 3982,
      "좟": 3983,
      "좠": 3984,
      "좡": 3985,
      "좢": 3986,
      "좦": 3987,
      "좧": 3988,
      "좨": 3989,
      "좬": 3990,
      "좭": 3991,
      "좰": 3992,
      "좼": 3993,
      "좽": 3994,
      "죁": 3995,
      "죄": 3996,
      "죅": 3997,
      "죈": 3998,
      "죌": 3999,
      "죔": 4000,
      "죕": 4001,
      "죗": 4002,
      "죘": 4003,
      "죙": 4004,
      "죚": 4005,
      "죠": 4006,
      "죡": 4007,
      "죢": 4008,
      "죤": 4009,
      "죥": 4010,
      "죧": 4011,
      "죨": 4012,
      "죰": 4013,
      "죱": 4014,
      "죳": 4015,
      "죴": 4016,
      "죵": 4017,
      "죶": 4018,
      "죷": 4019,
      "죸": 4020,
      "죹": 4021,
      "죻": 4022,
      "주": 4023,
      "죽": 4024,
      "죾": 4025,
      "준": 4026,
      "줁": 4027,
      "줃": 4028,
      "줄": 4029,
      "줅": 4030,
      "줆": 4031,
      "줈": 4032,
      "줉": 4033,
      "줋": 4034,
      "줌": 4035,
      "줍": 4036,
      "줎": 4037,
      "줏": 4038,
      "줐": 4039,
      "중": 4040,
      "줒": 4041,
      "줓": 4042,
      "줔": 4043,
      "줕": 4044,
      "줗": 4045,
      "줘": 4046,
      "줙": 4047,
      "줚": 4048,
      "줜": 4049,
      "줠": 4050,
      "줦": 4051,
      "줫": 4052,
      "줬": 4053,
      "줭": 4054,
      "줮": 4055,
      "줳": 4056,
      "줴": 4057,
      "줵": 4058,
      "줸": 4059,
      "줼": 4060,
      "쥄": 4061,
      "쥅": 4062,
      "쥆": 4063,
      "쥇": 4064,
      "쥈": 4065,
      "쥉": 4066,
      "쥐": 4067,
      "쥑": 4068,
      "쥔": 4069,
      "쥗": 4070,
      "쥘": 4071,
      "쥠": 4072,
      "쥡": 4073,
      "쥣": 4074,
      "쥤": 4075,
      "쥥": 4076,
      "쥪": 4077,
      "쥬": 4078,
      "쥭": 4079,
      "쥰": 4080,
      "쥳": 4081,
      "쥴": 4082,
      "쥻": 4083,
      "쥼": 4084,
      "쥽": 4085,
      "쥿": 4086,
      "즀": 4087,
      "즁": 4088,
      "즈": 4089,
      "즉": 4090,
      "즊": 4091,
      "즋": 4092,
      "즌": 4093,
      "즏": 4094,
      "즐": 4095,
      "즑": 4096,
      "즕": 4097,
      "즘": 4098,
      "즙": 4099,
      "즛": 4100,
      "증": 4101,
      "즞": 4102,
      "즡": 4103,
      "즣": 4104,
      "즤": 4105,
      "즥": 4106,
      "즨": 4107,
      "즬": 4108,
      "즮": 4109,
      "즴": 4110,
      "즵": 4111,
      "즹": 4112,
      "지": 4113,
      "직": 4114,
      "짂": 4115,
      "진": 4116,
      "짅": 4117,
      "짆": 4118,
      "짇": 4119,
      "질": 4120,
      "짉": 4121,
      "짊": 4122,
      "짋": 4123,
      "짌": 4124,
      "짍": 4125,
      "짎": 4126,
      "짏": 4127,
      "짐": 4128,
      "집": 4129,
      "짒": 4130,
      "짓": 4131,
      "짔": 4132,
      "징": 4133,
      "짖": 4134,
      "짗": 4135,
      "짘": 4136,
      "짙": 4137,
      "짚": 4138,
      "짛": 4139,
      "짜": 4140,
      "짝": 4141,
      "짞": 4142,
      "짠": 4143,
      "짡": 4144,
      "짢": 4145,
      "짤": 4146,
      "짥": 4147,
      "짦": 4148,
      "짧": 4149,
      "짩": 4150,
      "짪": 4151,
      "짫": 4152,
      "짬": 4153,
      "짭": 4154,
      "짮": 4155,
      "짯": 4156,
      "짰": 4157,
      "짱": 4158,
      "짲": 4159,
      "짴": 4160,
      "짷": 4161,
      "째": 4162,
      "짹": 4163,
      "짼": 4164,
      "쨀": 4165,
      "쨈": 4166,
      "쨉": 4167,
      "쨋": 4168,
      "쨌": 4169,
      "쨍": 4170,
      "쨎": 4171,
      "쨏": 4172,
      "쨓": 4173,
      "쨔": 4174,
      "쨕": 4175,
      "쨖": 4176,
      "쨘": 4177,
      "쨚": 4178,
      "쨜": 4179,
      "쨟": 4180,
      "쨤": 4181,
      "쨥": 4182,
      "쨧": 4183,
      "쨨": 4184,
      "쨩": 4185,
      "쨰": 4186,
      "쨱": 4187,
      "쨴": 4188,
      "쩁": 4189,
      "쩃": 4190,
      "쩄": 4191,
      "쩅": 4192,
      "쩌": 4193,
      "쩍": 4194,
      "쩎": 4195,
      "쩐": 4196,
      "쩒": 4197,
      "쩔": 4198,
      "쩖": 4199,
      "쩗": 4200,
      "쩜": 4201,
      "쩝": 4202,
      "쩟": 4203,
      "쩠": 4204,
      "쩡": 4205,
      "쩧": 4206,
      "쩨": 4207,
      "쩩": 4208,
      "쩬": 4209,
      "쩯": 4210,
      "쩰": 4211,
      "쩸": 4212,
      "쩹": 4213,
      "쩻": 4214,
      "쩼": 4215,
      "쩽": 4216,
      "쪄": 4217,
      "쪈": 4218,
      "쪌": 4219,
      "쪏": 4220,
      "쪕": 4221,
      "쪗": 4222,
      "쪘": 4223,
      "쪙": 4224,
      "쪠": 4225,
      "쪤": 4226,
      "쪱": 4227,
      "쪵": 4228,
      "쪹": 4229,
      "쪼": 4230,
      "쪽": 4231,
      "쪾": 4232,
      "쫀": 4233,
      "쫂": 4234,
      "쫃": 4235,
      "쫄": 4236,
      "쫅": 4237,
      "쫌": 4238,
      "쫍": 4239,
      "쫏": 4240,
      "쫐": 4241,
      "쫑": 4242,
      "쫒": 4243,
      "쫓": 4244,
      "쫔": 4245,
      "쫕": 4246,
      "쫖": 4247,
      "쫗": 4248,
      "쫘": 4249,
      "쫙": 4250,
      "쫜": 4251,
      "쫠": 4252,
      "쫣": 4253,
      "쫬": 4254,
      "쫭": 4255,
      "쫰": 4256,
      "쫴": 4257,
      "쬈": 4258,
      "쬐": 4259,
      "쬔": 4260,
      "쬘": 4261,
      "쬠": 4262,
      "쬡": 4263,
      "쬤": 4264,
      "쬥": 4265,
      "쬧": 4266,
      "쬬": 4267,
      "쬭": 4268,
      "쬮": 4269,
      "쬰": 4270,
      "쬲": 4271,
      "쬷": 4272,
      "쬼": 4273,
      "쬽": 4274,
      "쬿": 4275,
      "쭀": 4276,
      "쭁": 4277,
      "쭂": 4278,
      "쭃": 4279,
      "쭈": 4280,
      "쭉": 4281,
      "쭊": 4282,
      "쭌": 4283,
      "쭐": 4284,
      "쭘": 4285,
      "쭙": 4286,
      "쭚": 4287,
      "쭛": 4288,
      "쭝": 4289,
      "쭞": 4290,
      "쭟": 4291,
      "쭤": 4292,
      "쭥": 4293,
      "쭭": 4294,
      "쭷": 4295,
      "쭸": 4296,
      "쭹": 4297,
      "쭿": 4298,
      "쮀": 4299,
      "쮓": 4300,
      "쮜": 4301,
      "쮝": 4302,
      "쮠": 4303,
      "쮤": 4304,
      "쮬": 4305,
      "쮯": 4306,
      "쮸": 4307,
      "쮹": 4308,
      "쯀": 4309,
      "쯇": 4310,
      "쯉": 4311,
      "쯊": 4312,
      "쯋": 4313,
      "쯍": 4314,
      "쯑": 4315,
      "쯔": 4316,
      "쯕": 4317,
      "쯘": 4318,
      "쯜": 4319,
      "쯤": 4320,
      "쯥": 4321,
      "쯧": 4322,
      "쯩": 4323,
      "쯪": 4324,
      "쯫": 4325,
      "쯬": 4326,
      "쯰": 4327,
      "쯱": 4328,
      "쯴": 4329,
      "찄": 4330,
      "찌": 4331,
      "찍": 4332,
      "찎": 4333,
      "찏": 4334,
      "찐": 4335,
      "찓": 4336,
      "찔": 4337,
      "찗": 4338,
      "찛": 4339,
      "찜": 4340,
      "찝": 4341,
      "찟": 4342,
      "찡": 4343,
      "찢": 4344,
      "찣": 4345,
      "찤": 4346,
      "찥": 4347,
      "찦": 4348,
      "찧": 4349,
      "차": 4350,
      "착": 4351,
      "찪": 4352,
      "찫": 4353,
      "찬": 4354,
      "찭": 4355,
      "찮": 4356,
      "찯": 4357,
      "찰": 4358,
      "찱": 4359,
      "찲": 4360,
      "찴": 4361,
      "찶": 4362,
      "찷": 4363,
      "참": 4364,
      "찹": 4365,
      "찺": 4366,
      "찻": 4367,
      "찼": 4368,
      "창": 4369,
      "찾": 4370,
      "찿": 4371,
      "챀": 4372,
      "챁": 4373,
      "챂": 4374,
      "챃": 4375,
      "채": 4376,
      "책": 4377,
      "챇": 4378,
      "챈": 4379,
      "챊": 4380,
      "챌": 4381,
      "챔": 4382,
      "챕": 4383,
      "챗": 4384,
      "챘": 4385,
      "챙": 4386,
      "챚": 4387,
      "챠": 4388,
      "챡": 4389,
      "챣": 4390,
      "챤": 4391,
      "챦": 4392,
      "챨": 4393,
      "챯": 4394,
      "챰": 4395,
      "챱": 4396,
      "챲": 4397,
      "챳": 4398,
      "챴": 4399,
      "챵": 4400,
      "챶": 4401,
      "챷": 4402,
      "챸": 4403,
      "챹": 4404,
      "챺": 4405,
      "챻": 4406,
      "챼": 4407,
      "챽": 4408,
      "첀": 4409,
      "첄": 4410,
      "처": 4411,
      "척": 4412,
      "첚": 4413,
      "첛": 4414,
      "천": 4415,
      "첞": 4416,
      "첟": 4417,
      "철": 4418,
      "첡": 4419,
      "첢": 4420,
      "첣": 4421,
      "첤": 4422,
      "첥": 4423,
      "첦": 4424,
      "첧": 4425,
      "첨": 4426,
      "첩": 4427,
      "첪": 4428,
      "첫": 4429,
      "첬": 4430,
      "청": 4431,
      "첮": 4432,
      "첯": 4433,
      "첰": 4434,
      "첱": 4435,
      "첲": 4436,
      "첳": 4437,
      "체": 4438,
      "첵": 4439,
      "첸": 4440,
      "첻": 4441,
      "첼": 4442,
      "쳄": 4443,
      "쳅": 4444,
      "쳇": 4445,
      "쳈": 4446,
      "쳉": 4447,
      "쳌": 4448,
      "쳎": 4449,
      "쳐": 4450,
      "쳑": 4451,
      "쳔": 4452,
      "쳕": 4453,
      "쳗": 4454,
      "쳘": 4455,
      "쳠": 4456,
      "쳡": 4457,
      "쳣": 4458,
      "쳤": 4459,
      "쳥": 4460,
      "쳧": 4461,
      "쳫": 4462,
      "쳬": 4463,
      "쳰": 4464,
      "쳴": 4465,
      "쳸": 4466,
      "쳹": 4467,
      "쳺": 4468,
      "쳻": 4469,
      "촁": 4470,
      "촅": 4471,
      "초": 4472,
      "촉": 4473,
      "촊": 4474,
      "촌": 4475,
      "촍": 4476,
      "촎": 4477,
      "촏": 4478,
      "촐": 4479,
      "촑": 4480,
      "촒": 4481,
      "촓": 4482,
      "촔": 4483,
      "촕": 4484,
      "촖": 4485,
      "촘": 4486,
      "촙": 4487,
      "촛": 4488,
      "총": 4489,
      "촞": 4490,
      "촟": 4491,
      "촠": 4492,
      "촡": 4493,
      "촢": 4494,
      "촣": 4495,
      "촤": 4496,
      "촥": 4497,
      "촨": 4498,
      "촬": 4499,
      "촵": 4500,
      "촷": 4501,
      "촹": 4502,
      "촻": 4503,
      "촾": 4504,
      "쵀": 4505,
      "쵁": 4506,
      "쵃": 4507,
      "쵄": 4508,
      "쵇": 4509,
      "최": 4510,
      "쵝": 4511,
      "쵠": 4512,
      "쵣": 4513,
      "쵤": 4514,
      "쵬": 4515,
      "쵭": 4516,
      "쵮": 4517,
      "쵯": 4518,
      "쵱": 4519,
      "쵷": 4520,
      "쵸": 4521,
      "쵹": 4522,
      "쵼": 4523,
      "춀": 4524,
      "춈": 4525,
      "춉": 4526,
      "춋": 4527,
      "춌": 4528,
      "춍": 4529,
      "춏": 4530,
      "추": 4531,
      "축": 4532,
      "춖": 4533,
      "춗": 4534,
      "춘": 4535,
      "춛": 4536,
      "출": 4537,
      "춝": 4538,
      "춟": 4539,
      "춠": 4540,
      "춢": 4541,
      "춣": 4542,
      "춤": 4543,
      "춥": 4544,
      "춦": 4545,
      "춧": 4546,
      "춨": 4547,
      "충": 4548,
      "춪": 4549,
      "춫": 4550,
      "춬": 4551,
      "춭": 4552,
      "춮": 4553,
      "춯": 4554,
      "춰": 4555,
      "춱": 4556,
      "춴": 4557,
      "춸": 4558,
      "췁": 4559,
      "췃": 4560,
      "췄": 4561,
      "췅": 4562,
      "췇": 4563,
      "췌": 4564,
      "췍": 4565,
      "췐": 4566,
      "췔": 4567,
      "췜": 4568,
      "췟": 4569,
      "췡": 4570,
      "췤": 4571,
      "취": 4572,
      "췩": 4573,
      "췬": 4574,
      "췰": 4575,
      "췸": 4576,
      "췹": 4577,
      "췻": 4578,
      "췼": 4579,
      "췽": 4580,
      "츀": 4581,
      "츄": 4582,
      "츅": 4583,
      "츆": 4584,
      "츈": 4585,
      "츌": 4586,
      "츎": 4587,
      "츔": 4588,
      "츕": 4589,
      "츗": 4590,
      "츙": 4591,
      "츠": 4592,
      "측": 4593,
      "츤": 4594,
      "츨": 4595,
      "츩": 4596,
      "츮": 4597,
      "츰": 4598,
      "츱": 4599,
      "츳": 4600,
      "층": 4601,
      "츷": 4602,
      "츸": 4603,
      "츺": 4604,
      "츻": 4605,
      "츼": 4606,
      "츽": 4607,
      "칀": 4608,
      "치": 4609,
      "칙": 4610,
      "칚": 4611,
      "친": 4612,
      "칝": 4613,
      "칞": 4614,
      "칟": 4615,
      "칠": 4616,
      "칡": 4617,
      "칢": 4618,
      "침": 4619,
      "칩": 4620,
      "칫": 4621,
      "칬": 4622,
      "칭": 4623,
      "칮": 4624,
      "칯": 4625,
      "칰": 4626,
      "칱": 4627,
      "칲": 4628,
      "칳": 4629,
      "카": 4630,
      "칵": 4631,
      "칸": 4632,
      "칻": 4633,
      "칼": 4634,
      "캄": 4635,
      "캅": 4636,
      "캆": 4637,
      "캇": 4638,
      "캈": 4639,
      "캉": 4640,
      "캋": 4641,
      "캌": 4642,
      "캍": 4643,
      "캎": 4644,
      "캐": 4645,
      "캑": 4646,
      "캔": 4647,
      "캘": 4648,
      "캠": 4649,
      "캡": 4650,
      "캢": 4651,
      "캣": 4652,
      "캤": 4653,
      "캥": 4654,
      "캪": 4655,
      "캬": 4656,
      "캭": 4657,
      "캰": 4658,
      "캴": 4659,
      "캼": 4660,
      "캽": 4661,
      "캿": 4662,
      "컀": 4663,
      "컁": 4664,
      "컄": 4665,
      "컅": 4666,
      "컈": 4667,
      "컛": 4668,
      "커": 4669,
      "컥": 4670,
      "컦": 4671,
      "컨": 4672,
      "컫": 4673,
      "컬": 4674,
      "컴": 4675,
      "컵": 4676,
      "컶": 4677,
      "컷": 4678,
      "컸": 4679,
      "컹": 4680,
      "컺": 4681,
      "컼": 4682,
      "컽": 4683,
      "컾": 4684,
      "케": 4685,
      "켁": 4686,
      "켄": 4687,
      "켇": 4688,
      "켈": 4689,
      "켐": 4690,
      "켑": 4691,
      "켓": 4692,
      "켔": 4693,
      "켕": 4694,
      "켘": 4695,
      "켙": 4696,
      "켚": 4697,
      "켛": 4698,
      "켜": 4699,
      "켝": 4700,
      "켞": 4701,
      "켠": 4702,
      "켣": 4703,
      "켤": 4704,
      "켬": 4705,
      "켭": 4706,
      "켮": 4707,
      "켯": 4708,
      "켰": 4709,
      "켱": 4710,
      "켳": 4711,
      "켵": 4712,
      "켷": 4713,
      "켸": 4714,
      "콀": 4715,
      "콉": 4716,
      "콋": 4717,
      "코": 4718,
      "콕": 4719,
      "콘": 4720,
      "콙": 4721,
      "콛": 4722,
      "콜": 4723,
      "콢": 4724,
      "콤": 4725,
      "콥": 4726,
      "콦": 4727,
      "콧": 4728,
      "콩": 4729,
      "콪": 4730,
      "콫": 4731,
      "콬": 4732,
      "콭": 4733,
      "콮": 4734,
      "콯": 4735,
      "콰": 4736,
      "콱": 4737,
      "콴": 4738,
      "콸": 4739,
      "쾀": 4740,
      "쾁": 4741,
      "쾃": 4742,
      "쾅": 4743,
      "쾌": 4744,
      "쾍": 4745,
      "쾐": 4746,
      "쾔": 4747,
      "쾡": 4748,
      "쾨": 4749,
      "쾩": 4750,
      "쾬": 4751,
      "쾰": 4752,
      "쾹": 4753,
      "쾻": 4754,
      "쾽": 4755,
      "쿄": 4756,
      "쿈": 4757,
      "쿌": 4758,
      "쿔": 4759,
      "쿗": 4760,
      "쿙": 4761,
      "쿜": 4762,
      "쿠": 4763,
      "쿡": 4764,
      "쿤": 4765,
      "쿨": 4766,
      "쿭": 4767,
      "쿯": 4768,
      "쿰": 4769,
      "쿱": 4770,
      "쿳": 4771,
      "쿵": 4772,
      "쿸": 4773,
      "쿹": 4774,
      "쿼": 4775,
      "쿽": 4776,
      "퀀": 4777,
      "퀄": 4778,
      "퀌": 4779,
      "퀍": 4780,
      "퀏": 4781,
      "퀐": 4782,
      "퀑": 4783,
      "퀘": 4784,
      "퀙": 4785,
      "퀜": 4786,
      "퀠": 4787,
      "퀡": 4788,
      "퀧": 4789,
      "퀩": 4790,
      "퀫": 4791,
      "퀭": 4792,
      "퀴": 4793,
      "퀵": 4794,
      "퀸": 4795,
      "퀼": 4796,
      "큄": 4797,
      "큅": 4798,
      "큇": 4799,
      "큉": 4800,
      "큌": 4801,
      "큐": 4802,
      "큔": 4803,
      "큗": 4804,
      "큘": 4805,
      "큠": 4806,
      "큡": 4807,
      "큣": 4808,
      "큥": 4809,
      "큨": 4810,
      "큪": 4811,
      "큫": 4812,
      "크": 4813,
      "큭": 4814,
      "큮": 4815,
      "큰": 4816,
      "큱": 4817,
      "큲": 4818,
      "클": 4819,
      "큹": 4820,
      "큻": 4821,
      "큼": 4822,
      "큽": 4823,
      "큾": 4824,
      "큿": 4825,
      "킁": 4826,
      "킄": 4827,
      "킅": 4828,
      "킇": 4829,
      "킈": 4830,
      "킉": 4831,
      "킌": 4832,
      "킐": 4833,
      "킝": 4834,
      "키": 4835,
      "킥": 4836,
      "킨": 4837,
      "킫": 4838,
      "킬": 4839,
      "킴": 4840,
      "킵": 4841,
      "킷": 4842,
      "킸": 4843,
      "킹": 4844,
      "킻": 4845,
      "킼": 4846,
      "킽": 4847,
      "킾": 4848,
      "타": 4849,
      "탁": 4850,
      "탃": 4851,
      "탄": 4852,
      "탆": 4853,
      "탇": 4854,
      "탈": 4855,
      "탉": 4856,
      "탍": 4857,
      "탏": 4858,
      "탐": 4859,
      "탑": 4860,
      "탒": 4861,
      "탓": 4862,
      "탔": 4863,
      "탕": 4864,
      "탖": 4865,
      "탗": 4866,
      "탘": 4867,
      "탙": 4868,
      "탚": 4869,
      "태": 4870,
      "택": 4871,
      "탞": 4872,
      "탠": 4873,
      "탡": 4874,
      "탢": 4875,
      "탣": 4876,
      "탤": 4877,
      "탬": 4878,
      "탭": 4879,
      "탯": 4880,
      "탰": 4881,
      "탱": 4882,
      "탲": 4883,
      "탴": 4884,
      "탵": 4885,
      "탶": 4886,
      "탸": 4887,
      "탹": 4888,
      "탺": 4889,
      "탼": 4890,
      "탾": 4891,
      "턀": 4892,
      "턁": 4893,
      "턈": 4894,
      "턌": 4895,
      "턍": 4896,
      "턎": 4897,
      "턐": 4898,
      "턑": 4899,
      "턒": 4900,
      "턓": 4901,
      "턔": 4902,
      "턕": 4903,
      "턜": 4904,
      "턤": 4905,
      "턩": 4906,
      "터": 4907,
      "턱": 4908,
      "턴": 4909,
      "턷": 4910,
      "털": 4911,
      "턹": 4912,
      "턺": 4913,
      "텀": 4914,
      "텁": 4915,
      "텂": 4916,
      "텃": 4917,
      "텄": 4918,
      "텅": 4919,
      "텆": 4920,
      "텈": 4921,
      "텉": 4922,
      "텊": 4923,
      "텋": 4924,
      "테": 4925,
      "텍": 4926,
      "텐": 4927,
      "텓": 4928,
      "텔": 4929,
      "텛": 4930,
      "템": 4931,
      "텝": 4932,
      "텟": 4933,
      "텡": 4934,
      "텢": 4935,
      "텣": 4936,
      "텤": 4937,
      "텥": 4938,
      "텦": 4939,
      "텧": 4940,
      "텨": 4941,
      "텩": 4942,
      "텪": 4943,
      "텬": 4944,
      "텰": 4945,
      "텱": 4946,
      "텳": 4947,
      "텸": 4948,
      "텹": 4949,
      "텻": 4950,
      "텼": 4951,
      "텽": 4952,
      "톁": 4953,
      "톃": 4954,
      "톄": 4955,
      "톅": 4956,
      "톈": 4957,
      "톔": 4958,
      "톕": 4959,
      "톗": 4960,
      "톙": 4961,
      "토": 4962,
      "톡": 4963,
      "톤": 4964,
      "톧": 4965,
      "톨": 4966,
      "톩": 4967,
      "톮": 4968,
      "톰": 4969,
      "톱": 4970,
      "톲": 4971,
      "톳": 4972,
      "통": 4973,
      "톶": 4974,
      "톷": 4975,
      "톸": 4976,
      "톹": 4977,
      "톺": 4978,
      "톻": 4979,
      "톼": 4980,
      "톽": 4981,
      "퇀": 4982,
      "퇄": 4983,
      "퇌": 4984,
      "퇑": 4985,
      "퇗": 4986,
      "퇘": 4987,
      "퇣": 4988,
      "퇫": 4989,
      "퇬": 4990,
      "퇴": 4991,
      "퇵": 4992,
      "퇸": 4993,
      "퇼": 4994,
      "툄": 4995,
      "툅": 4996,
      "툇": 4997,
      "툉": 4998,
      "툋": 4999,
      "툏": 5000,
      "툐": 5001,
      "툑": 5002,
      "툓": 5003,
      "툔": 5004,
      "툘": 5005,
      "툝": 5006,
      "툠": 5007,
      "툡": 5008,
      "툥": 5009,
      "툩": 5010,
      "툫": 5011,
      "투": 5012,
      "툭": 5013,
      "툰": 5014,
      "툴": 5015,
      "툵": 5016,
      "툸": 5017,
      "툹": 5018,
      "툻": 5019,
      "툼": 5020,
      "툽": 5021,
      "툿": 5022,
      "퉀": 5023,
      "퉁": 5024,
      "퉅": 5025,
      "퉆": 5026,
      "퉈": 5027,
      "퉌": 5028,
      "퉐": 5029,
      "퉜": 5030,
      "퉝": 5031,
      "퉤": 5032,
      "퉥": 5033,
      "퉨": 5034,
      "퉷": 5035,
      "퉸": 5036,
      "퉹": 5037,
      "튀": 5038,
      "튁": 5039,
      "튄": 5040,
      "튈": 5041,
      "튐": 5042,
      "튑": 5043,
      "튓": 5044,
      "튔": 5045,
      "튕": 5046,
      "튙": 5047,
      "튜": 5048,
      "튝": 5049,
      "튠": 5050,
      "튤": 5051,
      "튦": 5052,
      "튬": 5053,
      "튭": 5054,
      "튯": 5055,
      "튱": 5056,
      "튲": 5057,
      "튳": 5058,
      "튵": 5059,
      "튶": 5060,
      "트": 5061,
      "특": 5062,
      "튻": 5063,
      "튼": 5064,
      "튽": 5065,
      "튿": 5066,
      "틀": 5067,
      "틂": 5068,
      "틇": 5069,
      "틈": 5070,
      "틉": 5071,
      "틊": 5072,
      "틋": 5073,
      "틍": 5074,
      "틏": 5075,
      "틐": 5076,
      "틑": 5077,
      "틔": 5078,
      "틕": 5079,
      "틘": 5080,
      "틜": 5081,
      "틤": 5082,
      "틥": 5083,
      "틧": 5084,
      "틩": 5085,
      "티": 5086,
      "틱": 5087,
      "틴": 5088,
      "틷": 5089,
      "틸": 5090,
      "틼": 5091,
      "팀": 5092,
      "팁": 5093,
      "팂": 5094,
      "팃": 5095,
      "팄": 5096,
      "팅": 5097,
      "팈": 5098,
      "팉": 5099,
      "팊": 5100,
      "파": 5101,
      "팍": 5102,
      "팎": 5103,
      "팏": 5104,
      "판": 5105,
      "팑": 5106,
      "팒": 5107,
      "팓": 5108,
      "팔": 5109,
      "팖": 5110,
      "팗": 5111,
      "팚": 5112,
      "팛": 5113,
      "팜": 5114,
      "팝": 5115,
      "팟": 5116,
      "팠": 5117,
      "팡": 5118,
      "팢": 5119,
      "팣": 5120,
      "팤": 5121,
      "팥": 5122,
      "팦": 5123,
      "패": 5124,
      "팩": 5125,
      "팬": 5126,
      "팭": 5127,
      "팯": 5128,
      "팰": 5129,
      "팵": 5130,
      "팸": 5131,
      "팹": 5132,
      "팻": 5133,
      "팼": 5134,
      "팽": 5135,
      "퍁": 5136,
      "퍄": 5137,
      "퍅": 5138,
      "퍈": 5139,
      "퍌": 5140,
      "퍐": 5141,
      "퍗": 5142,
      "퍘": 5143,
      "퍙": 5144,
      "퍚": 5145,
      "퍠": 5146,
      "퍡": 5147,
      "퍤": 5148,
      "퍭": 5149,
      "퍵": 5150,
      "퍼": 5151,
      "퍽": 5152,
      "퍾": 5153,
      "퍿": 5154,
      "펀": 5155,
      "펁": 5156,
      "펄": 5157,
      "펋": 5158,
      "펌": 5159,
      "펍": 5160,
      "펏": 5161,
      "펐": 5162,
      "펑": 5163,
      "펔": 5164,
      "펕": 5165,
      "펖": 5166,
      "펗": 5167,
      "페": 5168,
      "펙": 5169,
      "펜": 5170,
      "펠": 5171,
      "펨": 5172,
      "펩": 5173,
      "펫": 5174,
      "펬": 5175,
      "펭": 5176,
      "펰": 5177,
      "펱": 5178,
      "펲": 5179,
      "펴": 5180,
      "펵": 5181,
      "편": 5182,
      "펺": 5183,
      "펻": 5184,
      "펼": 5185,
      "폁": 5186,
      "폂": 5187,
      "폃": 5188,
      "폄": 5189,
      "폅": 5190,
      "폇": 5191,
      "폈": 5192,
      "평": 5193,
      "폍": 5194,
      "폏": 5195,
      "폐": 5196,
      "폑": 5197,
      "폔": 5198,
      "폕": 5199,
      "폘": 5200,
      "폠": 5201,
      "폡": 5202,
      "폣": 5203,
      "폥": 5204,
      "폦": 5205,
      "포": 5206,
      "폭": 5207,
      "폮": 5208,
      "폯": 5209,
      "폰": 5210,
      "폳": 5211,
      "폴": 5212,
      "폶": 5213,
      "폼": 5214,
      "폽": 5215,
      "폿": 5216,
      "퐁": 5217,
      "퐂": 5218,
      "퐃": 5219,
      "퐄": 5220,
      "퐅": 5221,
      "퐇": 5222,
      "퐈": 5223,
      "퐉": 5224,
      "퐌": 5225,
      "퐐": 5226,
      "퐑": 5227,
      "퐛": 5228,
      "퐝": 5229,
      "퐞": 5230,
      "퐠": 5231,
      "퐤": 5232,
      "퐷": 5233,
      "푀": 5234,
      "푁": 5235,
      "푄": 5236,
      "푈": 5237,
      "푓": 5238,
      "푕": 5239,
      "표": 5240,
      "푝": 5241,
      "푠": 5242,
      "푣": 5243,
      "푤": 5244,
      "푥": 5245,
      "푧": 5246,
      "푨": 5247,
      "푩": 5248,
      "푫": 5249,
      "푭": 5250,
      "푯": 5251,
      "푱": 5252,
      "푴": 5253,
      "푶": 5254,
      "푷": 5255,
      "푸": 5256,
      "푹": 5257,
      "푼": 5258,
      "푾": 5259,
      "푿": 5260,
      "풀": 5261,
      "풂": 5262,
      "풄": 5263,
      "풆": 5264,
      "풇": 5265,
      "품": 5266,
      "풉": 5267,
      "풋": 5268,
      "풍": 5269,
      "풏": 5270,
      "풐": 5271,
      "풑": 5272,
      "풒": 5273,
      "풓": 5274,
      "풔": 5275,
      "풕": 5276,
      "풘": 5277,
      "풩": 5278,
      "풰": 5279,
      "풴": 5280,
      "풸": 5281,
      "풿": 5282,
      "퓅": 5283,
      "퓌": 5284,
      "퓍": 5285,
      "퓐": 5286,
      "퓔": 5287,
      "퓜": 5288,
      "퓝": 5289,
      "퓟": 5290,
      "퓡": 5291,
      "퓨": 5292,
      "퓩": 5293,
      "퓬": 5294,
      "퓰": 5295,
      "퓳": 5296,
      "퓴": 5297,
      "퓵": 5298,
      "퓸": 5299,
      "퓹": 5300,
      "퓻": 5301,
      "퓽": 5302,
      "픁": 5303,
      "픃": 5304,
      "프": 5305,
      "픅": 5306,
      "픈": 5307,
      "플": 5308,
      "픍": 5309,
      "픎": 5310,
      "픐": 5311,
      "픒": 5312,
      "픓": 5313,
      "픔": 5314,
      "픕": 5315,
      "픗": 5316,
      "픘": 5317,
      "픙": 5318,
      "픜": 5319,
      "픝": 5320,
      "픞": 5321,
      "픟": 5322,
      "픠": 5323,
      "픤": 5324,
      "픨": 5325,
      "픱": 5326,
      "픵": 5327,
      "피": 5328,
      "픽": 5329,
      "핀": 5330,
      "핁": 5331,
      "핃": 5332,
      "필": 5333,
      "핊": 5334,
      "핌": 5335,
      "핍": 5336,
      "핎": 5337,
      "핏": 5338,
      "핑": 5339,
      "핒": 5340,
      "핓": 5341,
      "핔": 5342,
      "핕": 5343,
      "핖": 5344,
      "핗": 5345,
      "하": 5346,
      "학": 5347,
      "핚": 5348,
      "핛": 5349,
      "한": 5350,
      "핝": 5351,
      "핞": 5352,
      "핟": 5353,
      "할": 5354,
      "핡": 5355,
      "핢": 5356,
      "핣": 5357,
      "핤": 5358,
      "핥": 5359,
      "핦": 5360,
      "핧": 5361,
      "함": 5362,
      "합": 5363,
      "핪": 5364,
      "핫": 5365,
      "핬": 5366,
      "항": 5367,
      "핮": 5368,
      "핯": 5369,
      "핰": 5370,
      "핱": 5371,
      "핲": 5372,
      "핳": 5373,
      "해": 5374,
      "핵": 5375,
      "핶": 5376,
      "핷": 5377,
      "핸": 5378,
      "핻": 5379,
      "핼": 5380,
      "핽": 5381,
      "햄": 5382,
      "햅": 5383,
      "햇": 5384,
      "했": 5385,
      "행": 5386,
      "햊": 5387,
      "햋": 5388,
      "햌": 5389,
      "햍": 5390,
      "햎": 5391,
      "햏": 5392,
      "햐": 5393,
      "햑": 5394,
      "햔": 5395,
      "햘": 5396,
      "햙": 5397,
      "햚": 5398,
      "햛": 5399,
      "햝": 5400,
      "햟": 5401,
      "햠": 5402,
      "햡": 5403,
      "햣": 5404,
      "햤": 5405,
      "향": 5406,
      "햩": 5407,
      "햫": 5408,
      "햬": 5409,
      "햭": 5410,
      "햰": 5411,
      "햺": 5412,
      "햻": 5413,
      "햿": 5414,
      "헀": 5415,
      "헁": 5416,
      "허": 5417,
      "헉": 5418,
      "헌": 5419,
      "헏": 5420,
      "헐": 5421,
      "헑": 5422,
      "헒": 5423,
      "헓": 5424,
      "헔": 5425,
      "헕": 5426,
      "헗": 5427,
      "험": 5428,
      "헙": 5429,
      "헚": 5430,
      "헛": 5431,
      "헜": 5432,
      "헝": 5433,
      "헠": 5434,
      "헡": 5435,
      "헢": 5436,
      "헣": 5437,
      "헤": 5438,
      "헥": 5439,
      "헨": 5440,
      "헬": 5441,
      "헭": 5442,
      "헯": 5443,
      "헰": 5444,
      "헴": 5445,
      "헵": 5446,
      "헷": 5447,
      "헸": 5448,
      "헹": 5449,
      "헺": 5450,
      "헼": 5451,
      "헾": 5452,
      "헿": 5453,
      "혀": 5454,
      "혁": 5455,
      "혂": 5456,
      "현": 5457,
      "혅": 5458,
      "혈": 5459,
      "혍": 5460,
      "혐": 5461,
      "협": 5462,
      "혒": 5463,
      "혓": 5464,
      "혔": 5465,
      "형": 5466,
      "혖": 5467,
      "혘": 5468,
      "혙": 5469,
      "혛": 5470,
      "혜": 5471,
      "혠": 5472,
      "혣": 5473,
      "혤": 5474,
      "혩": 5475,
      "혬": 5476,
      "혭": 5477,
      "혯": 5478,
      "혰": 5479,
      "혱": 5480,
      "혲": 5481,
      "호": 5482,
      "혹": 5483,
      "혺": 5484,
      "혻": 5485,
      "혼": 5486,
      "혿": 5487,
      "홀": 5488,
      "홁": 5489,
      "홅": 5490,
      "홇": 5491,
      "홈": 5492,
      "홉": 5493,
      "홋": 5494,
      "홍": 5495,
      "홐": 5496,
      "홑": 5497,
      "홓": 5498,
      "화": 5499,
      "확": 5500,
      "홖": 5501,
      "홗": 5502,
      "환": 5503,
      "홛": 5504,
      "활": 5505,
      "홝": 5506,
      "홞": 5507,
      "홣": 5508,
      "홤": 5509,
      "홥": 5510,
      "홧": 5511,
      "홨": 5512,
      "황": 5513,
      "홫": 5514,
      "홬": 5515,
      "홭": 5516,
      "홯": 5517,
      "홰": 5518,
      "홱": 5519,
      "홳": 5520,
      "홴": 5521,
      "횂": 5522,
      "횃": 5523,
      "횄": 5524,
      "횅": 5525,
      "회": 5526,
      "획": 5527,
      "횐": 5528,
      "횓": 5529,
      "횔": 5530,
      "횜": 5531,
      "횝": 5532,
      "횞": 5533,
      "횟": 5534,
      "횡": 5535,
      "횢": 5536,
      "횧": 5537,
      "효": 5538,
      "횩": 5539,
      "횬": 5540,
      "횰": 5541,
      "횸": 5542,
      "횹": 5543,
      "횻": 5544,
      "횽": 5545,
      "후": 5546,
      "훅": 5547,
      "훈": 5548,
      "훋": 5549,
      "훌": 5550,
      "훍": 5551,
      "훎": 5552,
      "훐": 5553,
      "훑": 5554,
      "훒": 5555,
      "훓": 5556,
      "훔": 5557,
      "훕": 5558,
      "훗": 5559,
      "훙": 5560,
      "훚": 5561,
      "훛": 5562,
      "훜": 5563,
      "훝": 5564,
      "훞": 5565,
      "훟": 5566,
      "훠": 5567,
      "훡": 5568,
      "훤": 5569,
      "훨": 5570,
      "훮": 5571,
      "훯": 5572,
      "훰": 5573,
      "훱": 5574,
      "훳": 5575,
      "훵": 5576,
      "훸": 5577,
      "훻": 5578,
      "훼": 5579,
      "훽": 5580,
      "휀": 5581,
      "휄": 5582,
      "휋": 5583,
      "휏": 5584,
      "휑": 5585,
      "휔": 5586,
      "휘": 5587,
      "휙": 5588,
      "휜": 5589,
      "휝": 5590,
      "휠": 5591,
      "휢": 5592,
      "휨": 5593,
      "휩": 5594,
      "휪": 5595,
      "휫": 5596,
      "휭": 5597,
      "휳": 5598,
      "휴": 5599,
      "휵": 5600,
      "휸": 5601,
      "휼": 5602,
      "흄": 5603,
      "흅": 5604,
      "흇": 5605,
      "흉": 5606,
      "흏": 5607,
      "흐": 5608,
      "흑": 5609,
      "흒": 5610,
      "흔": 5611,
      "흖": 5612,
      "흗": 5613,
      "흘": 5614,
      "흙": 5615,
      "흜": 5616,
      "흝": 5617,
      "흞": 5618,
      "흟": 5619,
      "흠": 5620,
      "흡": 5621,
      "흢": 5622,
      "흣": 5623,
      "흥": 5624,
      "흦": 5625,
      "흨": 5626,
      "흩": 5627,
      "흪": 5628,
      "흫": 5629,
      "희": 5630,
      "흭": 5631,
      "흰": 5632,
      "흳": 5633,
      "흴": 5634,
      "흼": 5635,
      "흽": 5636,
      "흿": 5637,
      "힁": 5638,
      "힂": 5639,
      "힇": 5640,
      "히": 5641,
      "힉": 5642,
      "힋": 5643,
      "힌": 5644,
      "힏": 5645,
      "힐": 5646,
      "힑": 5647,
      "힒": 5648,
      "힗": 5649,
      "힘": 5650,
      "힙": 5651,
      "힚": 5652,
      "힛": 5653,
      "힜": 5654,
      "힝": 5655,
      "힞": 5656,
      "힠": 5657,
      "힡": 5658,
      "힢": 5659,
      "힣": 5660,
      "％": 5661,
      "##기": 5662,
      "##업": 5663,
      "##에": 5664,
      "##서": 5665,
      "##만": 5666,
      "##큼": 5667,
      "##도": 5668,
      "##간": 5669,
      "##당": 5670,
      "##국": 5671,
      "##영": 5672,
      "##주": 5673,
      "##권": 5674,
      "##자": 5675,
      "##였": 5676,
      "##던": 5677,
      "##장": 5678,
      "##진": 5679,
      "##흥": 5680,
      "##공": 5681,
      "##단": 5682,
      "##람": 5683,
      "##처": 5684,
      "##럼": 5685,
      "##저": 5686,
      "##원": 5687,
      "##부": 5688,
      "##를": 5689,
      "##P": 5690,
      "##G": 5691,
      "##가": 5692,
      "##중": 5693,
      "##안": 5694,
      "##타": 5695,
      "##한": 5696,
      "##통": 5697,
      "##일": 5698,
      "##로": 5699,
      "##짜": 5700,
      "##치": 5701,
      "##킨": 5702,
      "##을": 5703,
      "##태": 5704,
      "##계": 5705,
      "##이": 5706,
      "##클": 5707,
      "##럭": 5708,
      "##노": 5709,
      "##동": 5710,
      "##조": 5711,
      "##합": 5712,
      "##총": 5713,
      "##연": 5714,
      "##맹": 5715,
      "##으": 5716,
      "##터": 5717,
      "##적": 5718,
      "##시": 5719,
      "##지": 5720,
      "##스": 5721,
      "##들": 5722,
      "##인": 5723,
      "##사": 5724,
      "##색": 5725,
      "##병": 5726,
      "##다": 5727,
      "##고": 5728,
      "##발": 5729,
      "##탄": 5730,
      "##체": 5731,
      "##은": 5732,
      "##마": 5733,
      "##씨": 5734,
      "##는": 5735,
      "##청": 5736,
      "##년": 5737,
      "##화": 5738,
      "##학": 5739,
      "##소": 5740,
      "##반": 5741,
      "##찬": 5742,
      "##유": 5743,
      "##숙": 5744,
      "##과": 5745,
      "##A": 5746,
      "##탈": 5747,
      "##러": 5748,
      "##운": 5749,
      "##비": 5750,
      "##세": 5751,
      "##제": 5752,
      "##설": 5753,
      "##보": 5754,
      "##호": 5755,
      "##길": 5756,
      "##료": 5757,
      "##피": 5758,
      "##헤": 5759,
      "##아": 5760,
      "##네": 5761,
      "##린": 5762,
      "##트": 5763,
      "##신": 5764,
      "##입": 5765,
      "##생": 5766,
      "##따": 5767,
      "##i": 5768,
      "##s": 5769,
      "##e": 5770,
      "##r": 5771,
      "##S": 5772,
      "##남": 5773,
      "##순": 5774,
      "##0": 5775,
      "##3": 5776,
      "##1": 5777,
      "##억": 5778,
      "##캐": 5779,
      "##5": 5780,
      "##7": 5781,
      "##8": 5782,
      "##6": 5783,
      "##9": 5784,
      "##절": 5785,
      "##파": 5786,
      "##문": 5787,
      "##항": 5788,
      "##대": 5789,
      "##우": 5790,
      "##위": 5791,
      "##평": 5792,
      "##관": 5793,
      "##물": 5794,
      "##류": 5795,
      "##리": 5796,
      "##규": 5797,
      "##정": 5798,
      "##면": 5799,
      "##교": 5800,
      "##해": 5801,
      "##야": 5802,
      "##하": 5803,
      "##a": 5804,
      "##t": 5805,
      "##b": 5806,
      "##o": 5807,
      "##y": 5808,
      "##회": 5809,
      "##미": 5810,
      "##갔": 5811,
      "##코": 5812,
      "##와": 5813,
      "##어": 5814,
      "##게": 5815,
      "##약": 5816,
      "##격": 5817,
      "##식": 5818,
      "##봉": 5819,
      "##전": 5820,
      "##백": 5821,
      "##념": 5822,
      "##품": 5823,
      "##잣": 5824,
      "##때": 5825,
      "##오": 5826,
      "##바": 5827,
      "##상": 5828,
      "##의": 5829,
      "##특": 5830,
      "##추": 5831,
      "##모": 5832,
      "##델": 5833,
      "##머": 5834,
      "##엽": 5835,
      "##c": 5836,
      "##h": 5837,
      "##p": 5838,
      "##n": 5839,
      "##d": 5840,
      "##춤": 5841,
      "##거": 5842,
      "##선": 5843,
      "##건": 5844,
      "##요": 5845,
      "##앤": 5846,
      "##몰": 5847,
      "##m": 5848,
      "##번": 5849,
      "##쪽": 5850,
      "##있": 5851,
      "##레": 5852,
      "##나": 5853,
      "##룬": 5854,
      "##질": 5855,
      "##수": 5856,
      "##익": 5857,
      "##록": 5858,
      "##북": 5859,
      "##방": 5860,
      "##본": 5861,
      "##떠": 5862,
      "##능": 5863,
      "##니": 5864,
      "##울": 5865,
      "##표": 5866,
      "##극": 5867,
      "##워": 5868,
      "##l": 5869,
      "##v": 5870,
      "##곡": 5871,
      "##각": 5872,
      "##먹": 5873,
      "##할": 5874,
      "##같": 5875,
      "##여": 5876,
      "##복": 5877,
      "##변": 5878,
      "##툴": 5879,
      "##충": 5880,
      "##효": 5881,
      "##라": 5882,
      "##4": 5883,
      "##냉": 5884,
      "##재": 5885,
      "##강": 5886,
      "##행": 5887,
      "##티": 5888,
      "##글": 5889,
      "##벌": 5890,
      "##켓": 5891,
      "##증": 5892,
      "##르": 5893,
      "##며": 5894,
      "##괴": 5895,
      "##란": 5896,
      "##그": 5897,
      "##군": 5898,
      "##완": 5899,
      "##성": 5900,
      "##론": 5901,
      "##논": 5902,
      "##손": 5903,
      "##씬": 5904,
      "##데": 5905,
      "##떡": 5906,
      "##웨": 5907,
      "##메": 5908,
      "##커": 5909,
      "##즘": 5910,
      "##양": 5911,
      "##더": 5912,
      "##었": 5913,
      "##용": 5914,
      "##술": 5915,
      "##천": 5916,
      "##판": 5917,
      "##까": 5918,
      "##육": 5919,
      "##2": 5920,
      "##삼": 5921,
      "##쌈": 5922,
      "##끼": 5923,
      "##확": 5924,
      "##포": 5925,
      "##함": 5926,
      "##차": 5927,
      "##플": 5928,
      "##또": 5929,
      "##케": 5930,
      "##날": 5931,
      "##퓨": 5932,
      "##종": 5933,
      "##족": 5934,
      "##산": 5935,
      "##되": 5936,
      "##련": 5937,
      "##분": 5938,
      "##E": 5939,
      "##W": 5940,
      "##O": 5941,
      "##N": 5942,
      "##D": 5943,
      "##R": 5944,
      "##큐": 5945,
      "##멘": 5946,
      "##곳": 5947,
      "##g": 5948,
      "##u": 5949,
      "##z": 5950,
      "##w": 5951,
      "##직": 5952,
      "##너": 5953,
      "##무": 5954,
      "##쓰": 5955,
      "##키": 5956,
      "##드": 5957,
      "##현": 5958,
      "##톨": 5959,
      "##릭": 5960,
      "##협": 5961,
      "##목": 5962,
      "##욕": 5963,
      "##탕": 5964,
      "##범": 5965,
      "##갤": 5966,
      "##암": 5967,
      "##쏘": 5968,
      "##철": 5969,
      "##언": 5970,
      "##님": 5971,
      "##허": 5972,
      "##법": 5973,
      "##금": 5974,
      "##베": 5975,
      "##홉": 5976,
      "##띠": 5977,
      "##딜": 5978,
      "##형": 5979,
      "##침": 5980,
      "##책": 5981,
      "##측": 5982,
      "##렀": 5983,
      "##근": 5984,
      "##예": 5985,
      "##랑": 5986,
      "##닭": 5987,
      "##f": 5988,
      "##융": 5989,
      "##빈": 5990,
      "##경": 5991,
      "##폐": 5992,
      "##크": 5993,
      "##온": 5994,
      "##프": 5995,
      "##루": 5996,
      "##층": 5997,
      "##담": 5998,
      "##골": 5999,
      "##럽": 6000,
      "##갈": 6001,
      "##등": 6002,
      "##칭": 6003,
      "##벨": 6004,
      "##편": 6005,
      "##찼": 6006,
      "##향": 6007,
      "##집": 6008,
      "##애": 6009,
      "##냐": 6010,
      "##슨": 6011,
      "##받": 6012,
      "##구": 6013,
      "##희": 6014,
      "##납": 6015,
      "##묘": 6016,
      "##박": 6017,
      "##잼": 6018,
      "##딸": 6019,
      "##토": 6020,
      "##임": 6021,
      "##든": 6022,
      "##디": 6023,
      "##출": 6024,
      "##랜": 6025,
      "##슬": 6026,
      "##두": 6027,
      "##틴": 6028,
      "##척": 6029,
      "##른": 6030,
      "##∼": 6031,
      "##압": 6032,
      "##채": 6033,
      "##습": 6034,
      "##했": 6035,
      "##감": 6036,
      "##풍": 6037,
      "##석": 6038,
      "##뿐": 6039,
      "##께": 6040,
      "##망": 6041,
      "##민": 6042,
      "##참": 6043,
      "##활": 6044,
      "##축": 6045,
      "##실": 6046,
      "##패": 6047,
      "##열": 6048,
      "##됫": 6049,
      "##객": 6050,
      "##독": 6051,
      "##눔": 6052,
      "##센": 6053,
      "##맨": 6054,
      "##삭": 6055,
      "##잇": 6056,
      "##몬": 6057,
      "##명": 6058,
      "##블": 6059,
      "##염": 6060,
      "##환": 6061,
      "##넘": 6062,
      "##카": 6063,
      "##좌": 6064,
      "##악": 6065,
      "##랠": 6066,
      "##륙": 6067,
      "##굴": 6068,
      "##줄": 6069,
      "##려": 6070,
      "##내": 6071,
      "##k": 6072,
      "##텐": 6073,
      "##츠": 6074,
      "##폰": 6075,
      "##개": 6076,
      "##속": 6077,
      "##촌": 6078,
      "##버": 6079,
      "##느": 6080,
      "##략": 6081,
      "##쉬": 6082,
      "##송": 6083,
      "##배": 6084,
      "##멸": 6085,
      "##창": 6086,
      "##갑": 6087,
      "##율": 6088,
      "##력": 6089,
      "##급": 6090,
      "##름": 6091,
      "##써": 6092,
      "##읍": 6093,
      "##초": 6094,
      "##쾌": 6095,
      "##것": 6096,
      "##끄": 6097,
      "##된": 6098,
      "##숨": 6099,
      "##왜": 6100,
      "##룸": 6101,
      "##역": 6102,
      "##앝": 6103,
      "##외": 6104,
      "##틀": 6105,
      "##말": 6106,
      "##난": 6107,
      "##떨": 6108,
      "##텔": 6109,
      "##령": 6110,
      "##꿀": 6111,
      "##꾸": 6112,
      "##취": 6113,
      "##킹": 6114,
      "##잔": 6115,
      "##즉": 6116,
      "##램": 6117,
      "##달": 6118,
      "##x": 6119,
      "##광": 6120,
      "##긍": 6121,
      "##심": 6122,
      "##H": 6123,
      "##투": 6124,
      "##쯤": 6125,
      "##빵": 6126,
      "##응": 6127,
      "##못": 6128,
      "##별": 6129,
      "##핀": 6130,
      "##작": 6131,
      "##볼": 6132,
      "##숍": 6133,
      "##턴": 6134,
      "##휨": 6135,
      "##림": 6136,
      "##음": 6137,
      "##똥": 6138,
      "##켜": 6139,
      "##콩": 6140,
      "##살": 6141,
      "##챔": 6142,
      "##올": 6143,
      "##륜": 6144,
      "##테": 6145,
      "##텍": 6146,
      "##꽃": 6147,
      "##걸": 6148,
      "##량": 6149,
      "##농": 6150,
      "##퍼": 6151,
      "##딩": 6152,
      "##굼": 6153,
      "##잘": 6154,
      "##렘": 6155,
      "##쉐": 6156,
      "##셔": 6157,
      "##겠": 6158,
      "##꼈": 6159,
      "##컴": 6160,
      "##몸": 6161,
      "##매": 6162,
      "##막": 6163,
      "##렌": 6164,
      "##즌": 6165,
      "##꿔": 6166,
      "##샘": 6167,
      "##빛": 6168,
      "##쳐": 6169,
      "##쿠": 6170,
      "##녀": 6171,
      "##먼": 6172,
      "##획": 6173,
      "##칠": 6174,
      "##뻔": 6175,
      "##녁": 6176,
      "##값": 6177,
      "##쟁": 6178,
      "##월": 6179,
      "##혼": 6180,
      "##옥": 6181,
      "##빙": 6182,
      "##죠": 6183,
      "##점": 6184,
      "##릇": 6185,
      "##팅": 6186,
      "##팀": 6187,
      "##귀": 6188,
      "##긴": 6189,
      "##템": 6190,
      "##페": 6191,
      "##즈": 6192,
      "##I": 6193,
      "##준": 6194,
      "##눈": 6195,
      "##누": 6196,
      "##빌": 6197,
      "##j": 6198,
      "##률": 6199,
      "##듬": 6200,
      "##십": 6201,
      "##냥": 6202,
      "##B": 6203,
      "##T": 6204,
      "##옴": 6205,
      "##엔": 6206,
      "##칙": 6207,
      "##쿨": 6208,
      "##겐": 6209,
      "##졸": 6210,
      "##폼": 6211,
      "##황": 6212,
      "##텀": 6213,
      "##K": 6214,
      "##삐": 6215,
      "##래": 6216,
      "##택": 6217,
      "##덩": 6218,
      "##례": 6219,
      "##잡": 6220,
      "##얄": 6221,
      "##밉": 6222,
      "##립": 6223,
      "##M": 6224,
      "##져": 6225,
      "##답": 6226,
      "##팟": 6227,
      "##퐁": 6228,
      "##렐": 6229,
      "##혜": 6230,
      "##접": 6231,
      "##핑": 6232,
      "##결": 6233,
      "##샵": 6234,
      "##뇨": 6235,
      "##벗": 6236,
      "##겨": 6237,
      "##밀": 6238,
      "##쁘": 6239,
      "##L": 6240,
      "##롱": 6241,
      "##찰": 6242,
      "##런": 6243,
      "##팔": 6244,
      "##렸": 6245,
      "##괄": 6246,
      "##랩": 6247,
      "##펠": 6248,
      "##혈": 6249,
      "##브": 6250,
      "##렉": 6251,
      "##셨": 6252,
      "##쩌": 6253,
      "##승": 6254,
      "##쌥": 6255,
      "##존": 6256,
      "##엄": 6257,
      "##꼴": 6258,
      "##액": 6259,
      "##F": 6260,
      "##V": 6261,
      "##없": 6262,
      "##후": 6263,
      "##룡": 6264,
      "##털": 6265,
      "##웃": 6266,
      "##았": 6267,
      "##착": 6268,
      "##돌": 6269,
      "##봄": 6270,
      "##새": 6271,
      "##폭": 6272,
      "##캔": 6273,
      "##칼": 6274,
      "##불": 6275,
      "##줬": 6276,
      "##닫": 6277,
      "##릴": 6278,
      "##넥": 6279,
      "##훈": 6280,
      "##험": 6281,
      "##닝": 6282,
      "##뢰": 6283,
      "##Z": 6284,
      "##훼": 6285,
      "##섬": 6286,
      "##끝": 6287,
      "##흔": 6288,
      "##킬": 6289,
      "##봐": 6290,
      "##놀": 6291,
      "##놓": 6292,
      "##C": 6293,
      "##최": 6294,
      "##죄": 6295,
      "##낸": 6296,
      "##팝": 6297,
      "##콘": 6298,
      "##랏": 6299,
      "##곤": 6300,
      "##친": 6301,
      "##궐": 6302,
      "##움": 6303,
      "##켰": 6304,
      "##알": 6305,
      "##픈": 6306,
      "##징": 6307,
      "##벼": 6308,
      "##룩": 6309,
      "##겟": 6310,
      "##잖": 6311,
      "##돼": 6312,
      "##랬": 6313,
      "##랄": 6314,
      "##멤": 6315,
      "##므": 6316,
      "##댔": 6317,
      "##샤": 6318,
      "##슛": 6319,
      "##럴": 6320,
      "##J": 6321,
      "##빅": 6322,
      "##검": 6323,
      "##퀘": 6324,
      "##딱": 6325,
      "##쌍": 6326,
      "##옵": 6327,
      "##션": 6328,
      "##홈": 6329,
      "##렴": 6330,
      "##웜": 6331,
      "##견": 6332,
      "##젤": 6333,
      "##땟": 6334,
      "##렇": 6335,
      "##봇": 6336,
      "##뭄": 6337,
      "##샬": 6338,
      "##봤": 6339,
      "##잭": 6340,
      "##휴": 6341,
      "##킴": 6342,
      "##빚": 6343,
      "##흰": 6344,
      "##셋": 6345,
      "##랫": 6346,
      "##뒈": 6347,
      "##째": 6348,
      "##혁": 6349,
      "##땅": 6350,
      "##몇": 6351,
      "##숴": 6352,
      "##랍": 6353,
      "##쯔": 6354,
      "##푼": 6355,
      "##렛": 6356,
      "##씩": 6357,
      "##왕": 6358,
      "##꺼": 6359,
      "##톡": 6360,
      "##깨": 6361,
      "##캠": 6362,
      "##컬": 6363,
      "##콜": 6364,
      "##곰": 6365,
      "##욤": 6366,
      "##줌": 6367,
      "##깔": 6368,
      "##싶": 6369,
      "##뤄": 6370,
      "##졌": 6371,
      "##츄": 6372,
      "##컨": 6373,
      "##돈": 6374,
      "##렁": 6375,
      "##헌": 6376,
      "##널": 6377,
      "##릿": 6378,
      "##슴": 6379,
      "##돠": 6380,
      "##엑": 6381,
      "##첸": 6382,
      "##롄": 6383,
      "##득": 6384,
      "##셜": 6385,
      "##벤": 6386,
      "##윤": 6387,
      "##맞": 6388,
      "##췄": 6389,
      "##웍": 6390,
      "##깃": 6391,
      "##웠": 6392,
      "##앱": 6393,
      "##몽": 6394,
      "##튼": 6395,
      "##궁": 6396,
      "##좃": 6397,
      "##룹": 6398,
      "##X": 6399,
      "##짤": 6400,
      "##빠": 6401,
      "##히": 6402,
      "##씀": 6403,
      "##튜": 6404,
      "##웁": 6405,
      "##쇄": 6406,
      "##짐": 6407,
      "##균": 6408,
      "##콤": 6409,
      "##U": 6410,
      "##김": 6411,
      "##옆": 6412,
      "##앨": 6413,
      "##젊": 6414,
      "##슈": 6415,
      "##됐": 6416,
      "##뻑": 6417,
      "##흐": 6418,
      "##필": 6419,
      "##첫": 6420,
      "##옹": 6421,
      "##앙": 6422,
      "##풀": 6423,
      "##왔": 6424,
      "##즙": 6425,
      "##났": 6426,
      "##쁠": 6427,
      "##겁": 6428,
      "##밑": 6429,
      "##릉": 6430,
      "##락": 6431,
      "##밍": 6432,
      "##싸": 6433,
      "##썼": 6434,
      "##댜": 6435,
      "##셉": 6436,
      "##셀": 6437,
      "##섯": 6438,
      "##잠": 6439,
      "##뇰": 6440,
      "##첩": 6441,
      "##및": 6442,
      "##럿": 6443,
      "##Y": 6444,
      "##끈": 6445,
      "##뽑": 6446,
      "##찌": 6447,
      "##쓸": 6448,
      "##늪": 6449,
      "##톤": 6450,
      "##밖": 6451,
      "##쥴": 6452,
      "##링": 6453,
      "##늘": 6454,
      "##혀": 6455,
      "##쇠": 6456,
      "##놨": 6457,
      "##윰": 6458,
      "##둥": 6459,
      "##뒀": 6460,
      "##둔": 6461,
      "##짬": 6462,
      "##뽕": 6463,
      "##뜨": 6464,
      "##놔": 6465,
      "##휘": 6466,
      "##얼": 6467,
      "##낙": 6468,
      "##밸": 6469,
      "##엇": 6470,
      "##꼽": 6471,
      "##뉴": 6472,
      "##춰": 6473,
      "##숲": 6474,
      "##쌀": 6475,
      "##퉁": 6476,
      "##듯": 6477,
      "##콕": 6478,
      "##맘": 6479,
      "##칸": 6480,
      "##틱": 6481,
      "##빔": 6482,
      "##칩": 6483,
      "##흉": 6484,
      "##뮤": 6485,
      "##햄": 6486,
      "##쇼": 6487,
      "##헬": 6488,
      "##꼬": 6489,
      "##롬": 6490,
      "##넌": 6491,
      "##댄": 6492,
      "##쟈": 6493,
      "##겔": 6494,
      "##혹": 6495,
      "##롭": 6496,
      "##랙": 6497,
      "##셈": 6498,
      "##켄": 6499,
      "##긋": 6500,
      "##챠": 6501,
      "##쥐": 6502,
      "##맛": 6503,
      "##닉": 6504,
      "##쨌": 6505,
      "##닌": 6506,
      "##숯": 6507,
      "##뎃": 6508,
      "##펜": 6509,
      "##갱": 6510,
      "##홀": 6511,
      "##퇴": 6512,
      "##닷": 6513,
      "##찍": 6514,
      "##깥": 6515,
      "##탁": 6516,
      "##덕": 6517,
      "##쭐": 6518,
      "##슐": 6519,
      "##뜻": 6520,
      "##앞": 6521,
      "##꾼": 6522,
      "##걀": 6523,
      "##텃": 6524,
      "##밭": 6525,
      "##펀": 6526,
      "##믄": 6527,
      "##끔": 6528,
      "##않": 6529,
      "##팩": 6530,
      "##낌": 6531,
      "##웹": 6532,
      "##뭇": 6533,
      "##잉": 6534,
      "##볶": 6535,
      "##뜰": 6536,
      "##넉": 6537,
      "##헥": 6538,
      "##튀": 6539,
      "##될": 6540,
      "##촉": 6541,
      "##뼈": 6542,
      "##팥": 6543,
      "##싱": 6544,
      "##높": 6545,
      "##뚝": 6546,
      "##섭": 6547,
      "##맇": 6548,
      "##탠": 6549,
      "##웰": 6550,
      "##웅": 6551,
      "##q": 6552,
      "##밥": 6553,
      "##틸": 6554,
      "##맡": 6555,
      "##숫": 6556,
      "##칫": 6557,
      "##멀": 6558,
      "##헉": 6559,
      "##찐": 6560,
      "##랭": 6561,
      "##픽": 6562,
      "##깐": 6563,
      "##뗄": 6564,
      "##끌": 6565,
      "##젠": 6566,
      "##혔": 6567,
      "##젼": 6568,
      "##젯": 6569,
      "##뱌": 6570,
      "##닐": 6571,
      "##괜": 6572,
      "##챤": 6573,
      "##녕": 6574,
      "##밎": 6575,
      "##벽": 6576,
      "##뱅": 6577,
      "##퀴": 6578,
      "##렵": 6579,
      "##덮": 6580,
      "##톰": 6581,
      "##댁": 6582,
      "##렬": 6583,
      "##깝": 6584,
      "##엠": 6585,
      "##솔": 6586,
      "##껍": 6587,
      "##넬": 6588,
      "##엣": 6589,
      "##쭉": 6590,
      "##욱": 6591,
      "##홍": 6592,
      "##렷": 6593,
      "##윈": 6594,
      "##뻥": 6595,
      "##떼": 6596,
      "##탐": 6597,
      "##넹": 6598,
      "##좋": 6599,
      "##핵": 6600,
      "##닛": 6601,
      "##듣": 6602,
      "##엿": 6603,
      "##믹": 6604,
      "##큘": 6605,
      "##왑": 6606,
      "##딘": 6607,
      "##홰": 6608,
      "##됨": 6609,
      "##힌": 6610,
      "##덧": 6611,
      "##갯": 6612,
      "##뱀": 6613,
      "##쩡": 6614,
      "##맵": 6615,
      "##셰": 6616,
      "##밝": 6617,
      "##힐": 6618,
      "##꽈": 6619,
      "##냈": 6620,
      "##탱": 6621,
      "##뿡": 6622,
      "##컷": 6623,
      "##둘": 6624,
      "##춘": 6625,
      "##즐": 6626,
      "##혐": 6627,
      "##밧": 6628,
      "##끗": 6629,
      "##팼": 6630,
      "##꿍": 6631,
      "##찹": 6632,
      "##톱": 6633,
      "##걷": 6634,
      "##엉": 6635,
      "##뇌": 6636,
      "##떤": 6637,
      "##흡": 6638,
      "##죽": 6639,
      "##팠": 6640,
      "##봅": 6641,
      "##댈": 6642,
      "##뜩": 6643,
      "##덤": 6644,
      "##팍": 6645,
      "##슝": 6646,
      "##핫": 6647,
      "##줘": 6648,
      "##쁜": 6649,
      "##땐": 6650,
      "##짓": 6651,
      "##뿟": 6652,
      "##팬": 6653,
      "##벡": 6654,
      "##넷": 6655,
      "##룽": 6656,
      "##롤": 6657,
      "##쭈": 6658,
      "##겸": 6659,
      "##솥": 6660,
      "##엘": 6661,
      "##쑤": 6662,
      "##넛": 6663,
      "##렝": 6664,
      "##닥": 6665,
      "##핌": 6666,
      "##잃": 6667,
      "##벙": 6668,
      "##첼": 6669,
      "##켈": 6670,
      "##놈": 6671,
      "##덴": 6672,
      "##젬": 6673,
      "##끊": 6674,
      "##챌": 6675,
      "##빨": 6676,
      "##녹": 6677,
      "##뇽": 6678,
      "##둑": 6679,
      "##뷰": 6680,
      "##춧": 6681,
      "##읒": 6682,
      "##훨": 6683,
      "##붙": 6684,
      "##낼": 6685,
      "##껴": 6686,
      "##뚜": 6687,
      "##펴": 6688,
      "##쏠": 6689,
      "##윌": 6690,
      "##냄": 6691,
      "##벳": 6692,
      "##컵": 6693,
      "##힘": 6694,
      "##쳅": 6695,
      "##랐": 6696,
      "##늑": 6697,
      "##킷": 6698,
      "##짱": 6699,
      "##뭐": 6700,
      "##뻐": 6701,
      "##댕": 6702,
      "##앉": 6703,
      "##낫": 6704,
      "##밴": 6705,
      "##묵": 6706,
      "##쥬": 6707,
      "##붕": 6708,
      "##휠": 6709,
      "##뒤": 6710,
      "##캉": 6711,
      "##첨": 6712,
      "##얏": 6713,
      "##밤": 6714,
      "##뿌": 6715,
      "##좀": 6716,
      "##굿": 6717,
      "##탯": 6718,
      "##짝": 6719,
      "##툭": 6720,
      "##샷": 6721,
      "##댐": 6722,
      "##꽁": 6723,
      "##븐": 6724,
      "##맥": 6725,
      "##탭": 6726,
      "##겜": 6727,
      "##옌": 6728,
      "##냑": 6729,
      "##곱": 6730,
      "##욧": 6731,
      "##쵸": 6732,
      "##삶": 6733,
      "##씻": 6734,
      "##꿈": 6735,
      "##롯": 6736,
      "##솦": 6737,
      "##묻": 6738,
      "##륵": 6739,
      "##짖": 6740,
      "##뎀": 6741,
      "##앟": 6742,
      "##셧": 6743,
      "##샌": 6744,
      "##낭": 6745,
      "##튠": 6746,
      "##촬": 6747,
      "##펭": 6748,
      "##귄": 6749,
      "##쳤": 6750,
      "##엥": 6751,
      "##퍽": 6752,
      "##딴": 6753,
      "##큰": 6754,
      "##넝": 6755,
      "##펌": 6756,
      "##뻘": 6757,
      "##읽": 6758,
      "##쑈": 6759,
      "##붓": 6760,
      "##숭": 6761,
      "##윅": 6762,
      "##폴": 6763,
      "##핏": 6764,
      "##꼼": 6765,
      "##쫌": 6766,
      "##벅": 6767,
      "##챙": 6768,
      "##몹": 6769,
      "##콧": 6770,
      "##잎": 6771,
      "##귤": 6772,
      "##댓": 6773,
      "##탑": 6774,
      "##넴": 6775,
      "##찜": 6776,
      "##Q": 6777,
      "##뮴": 6778,
      "##픔": 6779,
      "##뿔": 6780,
      "##땜": 6781,
      "##넣": 6782,
      "##줍": 6783,
      "##앵": 6784,
      "##돔": 6785,
      "##멍": 6786,
      "##삿": 6787,
      "##찾": 6788,
      "##꿉": 6789,
      "##걱": 6790,
      "##겼": 6791,
      "##푸": 6792,
      "##숱": 6793,
      "##늬": 6794,
      "##씁": 6795,
      "##곶": 6796,
      "##쏭": 6797,
      "##많": 6798,
      "##낮": 6799,
      "##찔": 6800,
      "##멜": 6801,
      "##혓": 6802,
      "##췬": 6803,
      "##햇": 6804,
      "##짯": 6805,
      "##냅": 6806,
      "##빼": 6807,
      "##찡": 6808,
      "##긔": 6809,
      "##맺": 6810,
      "##뉘": 6811,
      "##껄": 6812,
      "##꾀": 6813,
      "##쁩": 6814,
      "##됬": 6815,
      "##덥": 6816,
      "##젖": 6817,
      "##묄": 6818,
      "##솜": 6819,
      "##쿤": 6820,
      "##펫": 6821,
      "##섰": 6822,
      "##쩐": 6823,
      "##솟": 6824,
      "##흑": 6825,
      "##텝": 6826,
      "##찮": 6827,
      "##뷔": 6828,
      "##젔": 6829,
      "##젓": 6830,
      "##뀌": 6831,
      "##팡": 6832,
      "##랴": 6833,
      "##턱": 6834,
      "##앗": 6835,
      "##믿": 6836,
      "##뀐": 6837,
      "##쪼": 6838,
      "##콸": 6839,
      "##캅": 6840,
      "##닢": 6841,
      "##뻤": 6842,
      "##걍": 6843,
      "##겦": 6844,
      "##꼰": 6845,
      "##쾰": 6846,
      "##젝": 6847,
      "##썰": 6848,
      "##덱": 6849,
      "##깊": 6850,
      "##쫀": 6851,
      "##덜": 6852,
      "##녘": 6853,
      "##륨": 6854,
      "##퀸": 6855,
      "##눠": 6856,
      "##쌓": 6857,
      "##룰": 6858,
      "##퍅": 6859,
      "##갚": 6860,
      "##쥔": 6861,
      "##탬": 6862,
      "##퀄": 6863,
      "##벰": 6864,
      "##몫": 6865,
      "##섮": 6866,
      "##꾹": 6867,
      "##캣": 6868,
      "##얘": 6869,
      "##쑥": 6870,
      "##삽": 6871,
      "##녜": 6872,
      "##겅": 6873,
      "##늙": 6874,
      "##룻": 6875,
      "##빴": 6876,
      "##굽": 6877,
      "##팽": 6878,
      "##궤": 6879,
      "##릎": 6880,
      "##멕": 6881,
      "##핸": 6882,
      "##횟": 6883,
      "##쫄": 6884,
      "##돗": 6885,
      "##꼭": 6886,
      "##쪄": 6887,
      "##쉘": 6888,
      "##듀": 6889,
      "##얀": 6890,
      "##맴": 6891,
      "##떻": 6892,
      "##땀": 6893,
      "##뽀": 6894,
      "##웬": 6895,
      "##둬": 6896,
      "##딪": 6897,
      "##밟": 6898,
      "##왈": 6899,
      "##빗": 6900,
      "##쿼": 6901,
      "##짙": 6902,
      "##곈": 6903,
      "##옐": 6904,
      "##껀": 6905,
      "##닦": 6906,
      "##섹": 6907,
      "##윗": 6908,
      "##맸": 6909,
      "##땡": 6910,
      "##툼": 6911,
      "##딧": 6912,
      "##뮬": 6913,
      "##앰": 6914,
      "##됩": 6915,
      "##싹": 6916,
      "##눕": 6917,
      "##팜": 6918,
      "##엤": 6919,
      "##깡": 6920,
      "##윙": 6921,
      "##쩔": 6922,
      "##얹": 6923,
      "##옷": 6924,
      "##쉼": 6925,
      "##캄": 6926,
      "##쨩": 6927,
      "##튄": 6928,
      "##헨": 6929,
      "##끓": 6930,
      "##찝": 6931,
      "##댑": 6932,
      "##슷": 6933,
      "##풋": 6934,
      "##낍": 6935,
      "##훌": 6936,
      "##듭": 6937,
      "##쉽": 6938,
      "##뫼": 6939,
      "##촛": 6940,
      "##뤼": 6941,
      "##뮈": 6942,
      "##봣": 6943,
      "##웸": 6944,
      "##헐": 6945,
      "##쿰": 6946,
      "##렙": 6947,
      "##둣": 6948,
      "##슭": 6949,
      "##곁": 6950,
      "##꽂": 6951,
      "##죵": 6952,
      "##쥰": 6953,
      "##캬": 6954,
      "##똑": 6955,
      "##겻": 6956,
      "##힙": 6957,
      "##툰": 6958,
      "##랗": 6959,
      "##묶": 6960,
      "##뤽": 6961,
      "##넨": 6962,
      "##왓": 6963,
      "##밋": 6964,
      "##틈": 6965,
      "##딕": 6966,
      "##촨": 6967,
      "##딨": 6968,
      "##챗": 6969,
      "##흠": 6970,
      "##훤": 6971,
      "##겹": 6972,
      "##뛰": 6973,
      "##샀": 6974,
      "##갖": 6975,
      "##팁": 6976,
      "##펙": 6977,
      "##팎": 6978,
      "##얻": 6979,
      "##뮌": 6980,
      "##곽": 6981,
      "##릅": 6982,
      "##붐": 6983,
      "##켠": 6984,
      "##캘": 6985,
      "##쎈": 6986,
      "##텟": 6987,
      "##짔": 6988,
      "##눌": 6989,
      "##쫓": 6990,
      "##텅": 6991,
      "##싯": 6992,
      "##갠": 6993,
      "##줴": 6994,
      "##뜬": 6995,
      "##쁨": 6996,
      "##얌": 6997,
      "##겄": 6998,
      "##싼": 6999,
      "##흘": 7000,
      "##낳": 7001,
      "##앓": 7002,
      "##킥": 7003,
      "##챕": 7004,
      "##낚": 7005,
      "##쎄": 7006,
      "##썻": 7007,
      "##샴": 7008,
      "##셸": 7009,
      "##캡": 7010,
      "##삘": 7011,
      "##듐": 7012,
      "##씹": 7013,
      "##펄": 7014,
      "##쏙": 7015,
      "##켸": 7016,
      "##띔": 7017,
      "##뱃": 7018,
      "##늠": 7019,
      "##궜": 7020,
      "##쨰": 7021,
      "##붑": 7022,
      "##솝": 7023,
      "##쾅": 7024,
      "##샹": 7025,
      "##셩": 7026,
      "##굳": 7027,
      "##앴": 7028,
      "##쿄": 7029,
      "##뜸": 7030,
      "##죤": 7031,
      "##땠": 7032,
      "##뚱": 7033,
      "##튿": 7034,
      "##윔": 7035,
      "##맑": 7036,
      "##듈": 7037,
      "##욬": 7038,
      "##쉰": 7039,
      "##츨": 7040,
      "##덫": 7041,
      "##랖": 7042,
      "##픕": 7043,
      "##궈": 7044,
      "##큨": 7045,
      "##슦": 7046,
      "##갓": 7047,
      "##맙": 7048,
      "##놉": 7049,
      "##밌": 7050,
      "##슌": 7051,
      "##톈": 7052,
      "##햐": 7053,
      "##뭉": 7054,
      "##뎌": 7055,
      "##뚫": 7056,
      "##갭": 7057,
      "##욜": 7058,
      "##쩍": 7059,
      "##헀": 7060,
      "##밗": 7061,
      "##붇": 7062,
      "##떄": 7063,
      "##멩": 7064,
      "##괌": 7065,
      "##뜯": 7066,
      "##횡": 7067,
      "##뵤": 7068,
      "##빳": 7069,
      "##흙": 7070,
      "##욘": 7071,
      "##늄": 7072,
      "##킵": 7073,
      "##뱉": 7074,
      "##엌": 7075,
      "##뭘": 7076,
      "##짠": 7077,
      "##닼": 7078,
      "##콥": 7079,
      "##벵": 7080,
      "##퓰": 7081,
      "##껭": 7082,
      "##썸": 7083,
      "##뻬": 7084,
      "##넵": 7085,
      "##븜": 7086,
      "##큇": 7087,
      "##쾨": 7088,
      "##퓔": 7089,
      "##퇘": 7090,
      "##닙": 7091,
      "##늕": 7092,
      "##샐": 7093,
      "##혒": 7094,
      "##볍": 7095,
      "##짚": 7096,
      "##찢": 7097,
      "##괭": 7098,
      "##졍": 7099,
      "##쓱": 7100,
      "##벋": 7101,
      "##샨": 7102,
      "##녔": 7103,
      "##눼": 7104,
      "##븀": 7105,
      "##몃": 7106,
      "##콰": 7107,
      "##딤": 7108,
      "##퓌": 7109,
      "##뉜": 7110,
      "##띄": 7111,
      "##뒬": 7112,
      "##슘": 7113,
      "##헸": 7114,
      "##뒷": 7115,
      "##웻": 7116,
      "##깼": 7117,
      "##슙": 7118,
      "##늉": 7119,
      "##싫": 7120,
      "##녠": 7121,
      "##껌": 7122,
      "##챘": 7123,
      "##맣": 7124,
      "##씰": 7125,
      "##댱": 7126,
      "##킁": 7127,
      "##믈": 7128,
      "##챈": 7129,
      "##엎": 7130,
      "##핼": 7131,
      "##늦": 7132,
      "##왁": 7133,
      "##쉴": 7134,
      "##쇽": 7135,
      "##뎅": 7136,
      "##륭": 7137,
      "##뵈": 7138,
      "##컫": 7139,
      "##썹": 7140,
      "##췌": 7141,
      "##탓": 7142,
      "##솀": 7143,
      "##껏": 7144,
      "##듕": 7145,
      "##숩": 7146,
      "##컸": 7147,
      "##셴": 7148,
      "##뎬": 7149,
      "##굥": 7150,
      "##뤘": 7151,
      "##씐": 7152,
      "##뻗": 7153,
      "##윽": 7154,
      "##낀": 7155,
      "##좆": 7156,
      "##돕": 7157,
      "##띵": 7158,
      "##둠": 7159,
      "##뀨": 7160,
      "##폿": 7161,
      "##닿": 7162,
      "##웡": 7163,
      "##뺑": 7164,
      "##짢": 7165,
      "##꽝": 7166,
      "##뿜": 7167,
      "##펑": 7168,
      "##탤": 7169,
      "##썽": 7170,
      "##깽": 7171,
      "##닮": 7172,
      "##훗": 7173,
      "##썬": 7174,
      "##찿": 7175,
      "##숑": 7176,
      "##잽": 7177,
      "##컥": 7178,
      "##캇": 7179,
      "##쮸": 7180,
      "##훙": 7181,
      "##쏟": 7182,
      "##슥": 7183,
      "##눅": 7184,
      "##껑": 7185,
      "##곧": 7186,
      "##썩": 7187,
      "##왠": 7188,
      "##씌": 7189,
      "##뒴": 7190,
      "##쉔": 7191,
      "##낄": 7192,
      "##섀": 7193,
      "##힝": 7194,
      "##쾡": 7195,
      "##줵": 7196,
      "##멱": 7197,
      "##돛": 7198,
      "##싀": 7199,
      "##팸": 7200,
      "##튬": 7201,
      "##잌": 7202,
      "##빱": 7203,
      "##캥": 7204,
      "##컹": 7205,
      "##빤": 7206,
      "##츈": 7207,
      "##폈": 7208,
      "##칵": 7209,
      "##쫑": 7210,
      "##잊": 7211,
      "##멎": 7212,
      "##뽁": 7213,
      "##헴": 7214,
      "##띤": 7215,
      "##즤": 7216,
      "##훑": 7217,
      "##멋": 7218,
      "##젭": 7219,
      "##깍": 7220,
      "##깎": 7221,
      "##푹": 7222,
      "##돋": 7223,
      "##긱": 7224,
      "##뚯": 7225,
      "##꼿": 7226,
      "##딛": 7227,
      "##귯": 7228,
      "##츌": 7229,
      "##읊": 7230,
      "##쿡": 7231,
      "##녈": 7232,
      "##윕": 7233,
      "##섴": 7234,
      "##핍": 7235,
      "##뺏": 7236,
      "##됴": 7237,
      "##좁": 7238,
      "##퐝": 7239,
      "##꿨": 7240,
      "##듦": 7241,
      "##샙": 7242,
      "##섞": 7243,
      "##럐": 7244,
      "##믐": 7245,
      "##숔": 7246,
      "##뚤": 7247,
      "##됍": 7248,
      "##맏": 7249,
      "##뀔": 7250,
      "##괘": 7251,
      "##깻": 7252,
      "##갇": 7253,
      "##읏": 7254,
      "##싵": 7255,
      "##돨": 7256,
      "##쩸": 7257,
      "##웩": 7258,
      "##옘": 7259,
      "##촐": 7260,
      "##쫒": 7261,
      "##쬬": 7262,
      "##뺒": 7263,
      "##욥": 7264,
      "##땃": 7265,
      "##쩨": 7266,
      "##떳": 7267,
      "##몄": 7268,
      "##겉": 7269,
      "##뛴": 7270,
      "##엡": 7271,
      "##푠": 7272,
      "##랸": 7273,
      "##쌤": 7274,
      "##붉": 7275,
      "##깁": 7276,
      "##핬": 7277,
      "##켐": 7278,
      "##펨": 7279,
      "##퀼": 7280,
      "##펼": 7281,
      "##낵": 7282,
      "##쭁": 7283,
      "##윳": 7284,
      "##퀀": 7285,
      "##놋": 7286,
      "##뭔": 7287,
      "##쿵": 7288,
      "##붸": 7289,
      "##겪": 7290,
      "##셮": 7291,
      "##팰": 7292,
      "##쳔": 7293,
      "##틋": 7294,
      "##읕": 7295,
      "##ㅉ": 7296,
      "##ㅗ": 7297,
      "##ㅈ": 7298,
      "##뻣": 7299,
      "##꽤": 7300,
      "##낡": 7301,
      "##햔": 7302,
      "##둡": 7303,
      "##잦": 7304,
      "##깅": 7305,
      "##쳬": 7306,
      "##눙": 7307,
      "##펍": 7308,
      "##왱": 7309,
      "##줏": 7310,
      "##쨈": 7311,
      "##찻": 7312,
      "##ㄹ": 7313,
      "##ㅢ": 7314,
      "##ㅤ": 7315,
      "##ㅂ": 7316,
      "##ㅐ": 7317,
      "##ㄶ": 7318,
      "##밈": 7319,
      "##멧": 7320,
      "##빻": 7321,
      "##닏": 7322,
      "##텁": 7323,
      "##꿋": 7324,
      "##깜": 7325,
      "##텡": 7326,
      "##됏": 7327,
      "##쨍": 7328,
      "##쌔": 7329,
      "##슉": 7330,
      "##빡": 7331,
      "##묭": 7332,
      "##첬": 7333,
      "##앳": 7334,
      "##낑": 7335,
      "##딲": 7336,
      "##끽": 7337,
      "##쇳": 7338,
      "##볕": 7339,
      "##졋": 7340,
      "##횔": 7341,
      "##촞": 7342,
      "##쿈": 7343,
      "##멈": 7344,
      "##픠": 7345,
      "##쑨": 7346,
      "##펐": 7347,
      "##쓴": 7348,
      "##탔": 7349,
      "##쿳": 7350,
      "##떽": 7351,
      "##벚": 7352,
      "##쒜": 7353,
      "##꺾": 7354,
      "##꼐": 7355,
      "##헵": 7356,
      "##쨋": 7357,
      "##켤": 7358,
      "##냔": 7359,
      "##숄": 7360,
      "##엷": 7361,
      "##뿍": 7362,
      "##귈": 7363,
      "##죡": 7364,
      "##굉": 7365,
      "##톄": 7366,
      "##긁": 7367,
      "##툐": 7368,
      "##뗌": 7369,
      "##옮": 7370,
      "##쩜": 7371,
      "##펏": 7372,
      "##덟": 7373,
      "##돤": 7374,
      "##킈": 7375,
      "##햏": 7376,
      "##쨘": 7377,
      "##읗": 7378,
      "##맷": 7379,
      "##쟎": 7380,
      "##뎁": 7381,
      "##뼛": 7382,
      "##갬": 7383,
      "##쒀": 7384,
      "##젱": 7385,
      "##횐": 7386,
      "##헛": 7387,
      "##쥠": 7388,
      "##옳": 7389,
      "##쳉": 7390,
      "##뷸": 7391,
      "##둴": 7392,
      "##샛": 7393,
      "##쭘": 7394,
      "##헿": 7395,
      "##낯": 7396,
      "##쑹": 7397,
      "##좐": 7398,
      "##촘": 7399,
      "##뗘": 7400,
      "##츽": 7401,
      "##먀": 7402,
      "##엲": 7403,
      "##륌": 7404,
      "##겊": 7405,
      "##춥": 7406,
      "##탸": 7407,
      "##튱": 7408,
      "##빽": 7409,
      "##뗀": 7410,
      "##왼": 7411,
      "##헷": 7412,
      "##낟": 7413,
      "##눴": 7414,
      "##숏": 7415,
      "##넓": 7416,
      "##췃": 7417,
      "##옙": 7418,
      "##숀": 7419,
      "##떰": 7420,
      "##핥": 7421,
      "##햤": 7422,
      "##쐐": 7423,
      "##띌": 7424,
      "##얽": 7425,
      "##똣": 7426,
      "##헝": 7427,
      "##딥": 7428,
      "##잰": 7429,
      "##쿱": 7430,
      "##욋": 7431,
      "##휩": 7432,
      "##돟": 7433,
      "##옛": 7434,
      "##햅": 7435,
      "##쎌": 7436,
      "##삳": 7437,
      "##볐": 7438,
      "##윱": 7439,
      "##좔": 7440,
      "##퀵": 7441,
      "##뽄": 7442,
      "##짰": 7443,
      "##웟": 7444,
      "##넙": 7445,
      "##듄": 7446,
      "##뒹": 7447,
      "##욌": 7448,
      "##뭍": 7449,
      "##텨": 7450,
      "##셕": 7451,
      "##닳": 7452,
      "##홋": 7453,
      "##먄": 7454,
      "##읜": 7455,
      "##쟌": 7456,
      "##짧": 7457,
      "##퀠": 7458,
      "##뼘": 7459,
      "##쬐": 7460,
      "##팃": 7461,
      "##훔": 7462,
      "##낏": 7463,
      "##삯": 7464,
      "##푀": 7465,
      "##됄": 7466,
      "##륀": 7467,
      "##ㅘ": 7468,
      "##ㄱ": 7469,
      "##똘": 7470,
      "##덖": 7471,
      "##엾": 7472,
      "##슼": 7473,
      "##쑵": 7474,
      "##씸": 7475,
      "##츰": 7476,
      "##펩": 7477,
      "##뱄": 7478,
      "##췰": 7479,
      "##쳄": 7480,
      "##큭": 7481,
      "##깸": 7482,
      "##뇩": 7483,
      "##븡": 7484,
      "##쌌": 7485,
      "##몆": 7486,
      "##ㅁ": 7487,
      "##ㅜ": 7488,
      "##롸": 7489,
      "##꼍": 7490,
      "##횅": 7491,
      "##텼": 7492,
      "##쫘": 7493,
      "##쫙": 7494,
      "##쟝": 7495,
      "##퉤": 7496,
      "##겡": 7497,
      "##켁": 7498,
      "##셍": 7499,
      "##톳": 7500,
      "##꿘": 7501,
      "##큅": 7502,
      "##걔": 7503,
      "##퀐": 7504,
      "##멥": 7505,
      "##뫄": 7506,
      "##삡": 7507,
      "##멓": 7508,
      "##늫": 7509,
      "##뤔": 7510,
      "##쨉": 7511,
      "##갸": 7512,
      "##휀": 7513,
      "##삤": 7514,
      "##꺽": 7515,
      "##탉": 7516,
      "##굘": 7517,
      "##얇": 7518,
      "##깬": 7519,
      "##똬": 7520,
      "##닯": 7521,
      "##겍": 7522,
      "##굄": 7523,
      "##뎠": 7524,
      "##읠": 7525,
      "##칡": 7526,
      "##굣": 7527,
      "##귓": 7528,
      "##룀": 7529,
      "##믾": 7530,
      "##쭤": 7531,
      "##삥": 7532,
      "##뛸": 7533,
      "##꿏": 7534,
      "##꼇": 7535,
      "##뉠": 7536,
      "##궂": 7537,
      "##쉈": 7538,
      "##잴": 7539,
      "##쟤": 7540,
      "##곪": 7541,
      "##궝": 7542,
      "##벞": 7543,
      "##톻": 7544,
      "##쥘": 7545,
      "##뤠": 7546,
      "##횽": 7547,
      "##꿰": 7548,
      "##숟": 7549,
      "##잤": 7550,
      "##녑": 7551,
      "##캴": 7552,
      "##큔": 7553,
      "##껫": 7554,
      "##뵐": 7555,
      "##똔": 7556,
      "##뫈": 7557,
      "##씽": 7558,
      "##옇": 7559,
      "##콴": 7560,
      "##폽": 7561,
      "##곗": 7562,
      "##칟": 7563,
      "##힛": 7564,
      "##끙": 7565,
      "##굵": 7566,
      "##퉈": 7567,
      "##냠": 7568,
      "##쉑": 7569,
      "##뎐": 7570,
      "##톺": 7571,
      "##쐬": 7572,
      "##앜": 7573,
      "##떴": 7574,
      "##듸": 7575,
      "##횃": 7576,
      "##맬": 7577,
      "##폔": 7578,
      "##쭝": 7579,
      "##꾜": 7580,
      "##굶": 7581,
      "##쪘": 7582,
      "##쥤": 7583,
      "##꽐": 7584,
      "##텽": 7585,
      "##삔": 7586,
      "##짛": 7587,
      "##젹": 7588,
      "##닺": 7589,
      "##뜀": 7590,
      "##퍄": 7591,
      "##쏴": 7592,
      "##밞": 7593,
      "##솨": 7594,
      "##꽌": 7595,
      "##짭": 7596,
      "##졈": 7597,
      "##뮨": 7598,
      "##찧": 7599,
      "##깟": 7600,
      "##쳥": 7601,
      "##퐈": 7602,
      "##옻": 7603,
      "##겆": 7604,
      "##낱": 7605,
      "##쨔": 7606,
      "##췐": 7607,
      "##뼉": 7608,
      "##뺐": 7609,
      "##뚠": 7610,
      "##쉠": 7611,
      "##촹": 7612,
      "##훅": 7613,
      "##켬": 7614,
      "##첵": 7615,
      "##뺨": 7616,
      "##켙": 7617,
      "##깠": 7618,
      "##뺀": 7619,
      "##뙜": 7620,
      "##턍": 7621,
      "##쳇": 7622,
      "##죌": 7623,
      "##뉼": 7624,
      "##놎": 7625,
      "##욀": 7626,
      "##웤": 7627,
      "##냣": 7628,
      "##ㅖ": 7629,
      "##ㄺ": 7630,
      "##뢴": 7631,
      "##랳": 7632,
      "##먕": 7633,
      "##툽": 7634,
      "##쒸": 7635,
      "##흴": 7636,
      "##쯩": 7637,
      "##뱐": 7638,
      "##잗": 7639,
      "##ㅏ": 7640,
      "##ㅆ": 7641,
      "##냡": 7642,
      "##챨": 7643,
      "##ㅡ": 7644,
      "##ㅇ": 7645,
      "##얺": 7646,
      "##헹": 7647,
      "##겝": 7648,
      "##얍": 7649,
      "##ㅋ": 7650,
      "##ㅝ": 7651,
      "##삑": 7652,
      "##꼅": 7653,
      "##릮": 7654,
      "##텦": 7655,
      "##슾": 7656,
      "##뗏": 7657,
      "##몐": 7658,
      "##솁": 7659,
      "##팦": 7660,
      "##믜": 7661,
      "##곘": 7662,
      "##궛": 7663,
      "##쌉": 7664,
      "##눗": 7665,
      "##껨": 7666,
      "##넜": 7667,
      "##읃": 7668,
      "##돾": 7669,
      "##퓸": 7670,
      "##잿": 7671,
      "##셥": 7672,
      "##샅": 7673,
      "##뾰": 7674,
      "##윷": 7675,
      "##힉": 7676,
      "##꿩": 7677,
      "##엦": 7678,
      "##잏": 7679,
      "##깄": 7680,
      "##봬": 7681,
      "##숖": 7682,
      "##뢸": 7683,
      "##륄": 7684,
      "##톼": 7685,
      "##빰": 7686,
      "##쳣": 7687,
      "##갛": 7688,
      "##뱡": 7689,
      "##갗": 7690,
      "##ㅅ": 7691,
      "##ㅠ": 7692,
      "##ㄴ": 7693,
      "##샾": 7694,
      "##싰": 7695,
      "##딫": 7696,
      "##꺄": 7697,
      "##뿓": 7698,
      "##튤": 7699,
      "##릳": 7700,
      "##껜": 7701,
      "##죈": 7702,
      "##줫": 7703,
      "##볓": 7704,
      "##뀜": 7705,
      "##쀼": 7706,
      "##붜": 7707,
      "##빕": 7708,
      "##ㅃ": 7709,
      "##ㄷ": 7710,
      "##뉸": 7711,
      "##뗐": 7712,
      "##툿": 7713,
      "##뺄": 7714,
      "##멉": 7715,
      "##졀": 7716,
      "##뿅": 7717,
      "##뤗": 7718,
      "##뵙": 7719,
      "##냇": 7720,
      "##떵": 7721,
      "##냘": 7722,
      "##뜹": 7723,
      "##ㅕ": 7724,
      "##튕": 7725,
      "##뚬": 7726,
      "##빩": 7727,
      "##뺡": 7728,
      "##댠": 7729,
      "##츤": 7730,
      "##졔": 7731,
      "##췍": 7732,
      "##늴": 7733,
      "##짼": 7734,
      "##둉": 7735,
      "##끕": 7736,
      "##켕": 7737,
      "##튐": 7738,
      "##뷴": 7739,
      "##룔": 7740,
      "##챰": 7741,
      "##짇": 7742,
      "##얕": 7743,
      "##촵": 7744,
      "##쭌": 7745,
      "##땸": 7746,
      "##쿌": 7747,
      "##푯": 7748,
      "##맀": 7749,
      "##짹": 7750,
      "##쫠": 7751,
      "##땄": 7752,
      "##돚": 7753,
      "##푝": 7754,
      "##짊": 7755,
      "##괸": 7756,
      "##캎": 7757,
      "##땋": 7758,
      "##폄": 7759,
      "##뷘": 7760,
      "##믓": 7761,
      "##뷀": 7762,
      "##쩰": 7763,
      "##뇬": 7764,
      "##쉥": 7765,
      "##귐": 7766,
      "##깿": 7767,
      "##찟": 7768,
      "##꽉": 7769,
      "##혛": 7770,
      "##흭": 7771,
      "##픞": 7772,
      "##뵌": 7773,
      "##떔": 7774,
      "##뭅": 7775,
      "##쩝": 7776,
      "##땁": 7777,
      "##햑": 7778,
      "##쉭": 7779,
      "##껐": 7780,
      "##졉": 7781,
      "##ㅙ": 7782,
      "##챦": 7783,
      "##틑": 7784,
      "##긒": 7785,
      "##퀑": 7786,
      "##볏": 7787,
      "##ㅊ": 7788,
      "##섶": 7789,
      "##뵹": 7790,
      "##엮": 7791,
      "##죕": 7792,
      "##됀": 7793,
      "##팻": 7794,
      "##춍": 7795,
      "##륑": 7796,
      "##쩬": 7797,
      "##볋": 7798,
      "##늰": 7799,
      "##냏": 7800,
      "##롑": 7801,
      "##븍": 7802,
      "##볘": 7803,
      "##틔": 7804,
      "##넿": 7805,
      "##얗": 7806,
      "##챃": 7807,
      "##솬": 7808,
      "##갹": 7809,
      "##퍈": 7810,
      "##캈": 7811,
      "##샥": 7812,
      "##퓽": 7813,
      "##칮": 7814,
      "##큿": 7815,
      "##쎃": 7816,
      "##꺅": 7817,
      "##벱": 7818,
      "##촤": 7819,
      "##쾀": 7820,
      "##헙": 7821,
      "##슁": 7822,
      "##릊": 7823,
      "##읎": 7824,
      "##싈": 7825,
      "##큥": 7826,
      "##녖": 7827,
      "##왐": 7828,
      "##띨": 7829,
      "##옭": 7830,
      "##쏜": 7831,
      "##꿧": 7832,
      "##껸": 7833,
      "##맟": 7834,
      "##쌩": 7835,
      "##웽": 7836,
      "##뽐": 7837,
      "##캤": 7838,
      "##헠": 7839,
      "##쯍": 7840,
      "##켯": 7841,
      "##뒨": 7842,
      "##쎅": 7843,
      "##묳": 7844,
      "##큠": 7845,
      "##솃": 7846,
      "##햘": 7847,
      "##켑": 7848,
      "##뽈": 7849,
      "##뉨": 7850,
      "##꿇": 7851,
      "##솹": 7852,
      "##픙": 7853,
      "##횻": 7854,
      "##벸": 7855,
      "##뷕": 7856,
      "##뵨": 7857,
      "##퉜": 7858,
      "##풉": 7859,
      "##퇼": 7860,
      "##넸": 7861,
      "##냬": 7862,
      "##볜": 7863,
      "##좨": 7864,
      "##탰": 7865,
      "##깈": 7866,
      "##죁": 7867,
      "##넀": 7868,
      "##됭": 7869,
      "##앍": 7870,
      "##셤": 7871,
      "##갉": 7872,
      "##랼": 7873,
      "##깹": 7874,
      "##딀": 7875,
      "##왇": 7876,
      "##ㄻ": 7877,
      "##륫": 7878,
      "##ㄸ": 7879,
      "##춈": 7880,
      "##큪": 7881,
      "##ㅒ": 7882,
      "##얔": 7883,
      "##썅": 7884,
      "##밨": 7885,
      "##덛": 7886,
      "##큡": 7887,
      "##깉": 7888,
      "##띳": 7889,
      "##솅": 7890,
      "##쌕": 7891,
      "##캿": 7892,
      "##껬": 7893,
      "##륰": 7894,
      "##솽": 7895,
      "##괼": 7896,
      "##뺭": 7897,
      "##홧": 7898,
      "##훠": 7899,
      "##룍": 7900,
      "##ㅞ": 7901,
      "##쟨": 7902,
      "##섕": 7903,
      "##솎": 7904,
      "##궃": 7905,
      "##팹": 7906,
      "##읺": 7907,
      "##뎡": 7908,
      "##휼": 7909,
      "##읫": 7910,
      "##틍": 7911,
      "##킾": 7912,
      "##푤": 7913,
      "##괵": 7914,
      "##븝": 7915,
      "##뙤": 7916,
      "##횬": 7917,
      "##즁": 7918,
      "##죙": 7919,
      "##컁": 7920,
      "##낻": 7921,
      "##멮": 7922,
      "##갰": 7923,
      "##ㅎ": 7924,
      "##츼": 7925,
      "##꺠": 7926,
      "##쟐": 7927,
      "##겋": 7928,
      "##띈": 7929,
      "##놜": 7930,
      "##댙": 7931,
      "##돎": 7932,
      "##꺗": 7933,
      "##룟": 7934,
      "##뺴": 7935,
      "##먈": 7936,
      "##얶": 7937,
      "##돐": 7938,
      "##긷": 7939,
      "##핗": 7940,
      "##뺙": 7941,
      "##뗑": 7942,
      "##썖": 7943,
      "##귁": 7944,
      "##텹": 7945,
      "##챵": 7946,
      "##햬": 7947,
      "##젆": 7948,
      "##앆": 7949,
      "##뵛": 7950,
      "##뱆": 7951,
      "##닠": 7952,
      "##뵀": 7953,
      "##곙": 7954,
      "##밒": 7955,
      "##짘": 7956,
      "##샜": 7957,
      "##ㄽ": 7958,
      "##겧": 7959,
      "##늣": 7960,
      "##묽": 7961,
      "##엏": 7962,
      "##럄": 7963,
      "##랒": 7964,
      "##꾄": 7965,
      "##츙": 7966,
      "##켝": 7967,
      "##끠": 7968,
      "##풔": 7969,
      "##핶": 7970,
      "##갼": 7971,
      "##룐": 7972,
      "##휸": 7973,
      "##퓟": 7974,
      "##땍": 7975,
      "##셌": 7976,
      "##늅": 7977,
      "##낰": 7978,
      "##춉": 7979,
      "##쟀": 7980,
      "##뭡": 7981,
      "##챡": 7982,
      "##슽": 7983,
      "##킸": 7984,
      "##롷": 7985,
      "##엨": 7986,
      "##넋": 7987,
      "##픨": 7988,
      "##홨": 7989,
      "##뤁": 7990,
      "##쐉": 7991,
      "##좡": 7992,
      "##눟": 7993,
      "##텬": 7994,
      "##솓": 7995,
      "##뫙": 7996,
      "##쳘": 7997,
      "##뇜": 7998,
      "##땨": 7999,
      "##탼": 8000,
      "##햛": 8001,
      "##뭣": 8002,
      "##핳": 8003,
      "##쿔": 8004,
      "##떈": 8005,
      "##삵": 8006,
      "##룁": 8007,
      "##엊": 8008,
      "##괞": 8009,
      "##쌨": 8010,
      "##뤰": 8011,
      "##벆": 8012,
      "##뭏": 8013,
      "##맢": 8014,
      "##큽": 8015,
      "##븅": 8016,
      "##훕": 8017,
      "##샫": 8018,
      "##흣": 8019,
      "##쥑": 8020,
      "##댣": 8021,
      "##꼉": 8022,
      "##훍": 8023,
      "##볌": 8024,
      "##퍠": 8025,
      "##혰": 8026,
      "##짏": 8027,
      "##롈": 8028,
      "##싣": 8029,
      "##씃": 8030,
      "##뮐": 8031,
      "##흄": 8032,
      "##ㄲ": 8033,
      "##ㅄ": 8034,
      "##틉": 8035,
      "##룅": 8036,
      "##퉌": 8037,
      "##쵼": 8038,
      "##븨": 8039,
      "##읭": 8040,
      "##얜": 8041,
      "##쫭": 8042,
      "##쇤": 8043,
      "##넼": 8044,
      "##롣": 8045,
      "##돲": 8046,
      "##몀": 8047,
      "##봘": 8048,
      "##핲": 8049,
      "##괏": 8050,
      "##벧": 8051,
      "##맊": 8052,
      "##헜": 8053,
      "##뎨": 8054,
      "##즛": 8055,
      "##벹": 8056,
      "##쫍": 8057,
      "##돡": 8058,
      "##댖": 8059,
      "##꾳": 8060,
      "##뷜": 8061,
      "##졘": 8062,
      "##홥": 8063,
      "##밢": 8064,
      "##떙": 8065,
      "##닞": 8066,
      "##뇐": 8067,
      "##롶": 8068,
      "##뻡": 8069,
      "##쇡": 8070,
      "##쌘": 8071,
      "##깆": 8072,
      "##츻": 8073,
      "##뤤": 8074,
      "##뢍": 8075,
      "##뛔": 8076,
      "##떥": 8077,
      "##젙": 8078,
      "##챱": 8079,
      "##섣": 8080,
      "##렏": 8081,
      "##낞": 8082,
      "##퐐": 8083,
      "##떱": 8084,
      "##곸": 8085,
      "##귑": 8086,
      "##뱓": 8087,
      "##헒": 8088,
      "##ㅔ": 8089,
      "##탶": 8090,
      "##쩠": 8091,
      "##녓": 8092,
      "##뤌": 8093,
      "##퀏": 8094,
      "##댸": 8095,
      "##넺": 8096,
      "##귿": 8097,
      "##튈": 8098,
      "##솄": 8099,
      "##갞": 8100,
      "##굔": 8101,
      "##쐴": 8102,
      "##힣": 8103,
      "##꿕": 8104,
      "##잆": 8105,
      "##뉵": 8106,
      "##묾": 8107,
      "##푶": 8108,
      "##훵": 8109,
      "##틤": 8110,
      "##귡": 8111,
      "##썌": 8112,
      "##헣": 8113,
      "##튭": 8114,
      "##릐": 8115,
      "##꽹": 8116,
      "##괙": 8117,
      "##꽛": 8118,
      "##돴": 8119,
      "##ㅌ": 8120,
      "##쥣": 8121,
      "##놧": 8122,
      "##빋": 8123,
      "##꽥": 8124,
      "##젛": 8125,
      "##줜": 8126,
      "##쳡": 8127,
      "##삒": 8128,
      "##맽": 8129,
      "##텄": 8130,
      "##렜": 8131,
      "##돣": 8132,
      "##쌐": 8133,
      "##닒": 8134,
      "##쳑": 8135,
      "##얐": 8136,
      "##끅": 8137,
      "##됌": 8138,
      "##풰": 8139,
      "##럤": 8140,
      "##돝": 8141,
      "##덨": 8142,
      "##픗": 8143,
      "##쑴": 8144,
      "##쎆": 8145,
      "##밪": 8146,
      "##휙": 8147,
      "##웝": 8148,
      "##멻": 8149,
      "##튽": 8150,
      "##넽": 8151,
      "##퀜": 8152,
      "##븖": 8153,
      "##몌": 8154,
      "##듵": 8155,
      "##컾": 8156,
      "##쓩": 8157,
      "##맫": 8158,
      "##흩": 8159,
      "##쬔": 8160,
      "##뤨": 8161,
      "##좇": 8162,
      "##몪": 8163,
      "##쉣": 8164,
      "##띁": 8165,
      "##뱁": 8166,
      "##쓔": 8167,
      "##휵": 8168,
      "##몯": 8169,
      "##뺌": 8170,
      "##뮙": 8171,
      "##쌰": 8172,
      "##뀠": 8173,
      "##쏀": 8174,
      "##갘": 8175,
      "##홤": 8176,
      "##랆": 8177,
      "##녂": 8178,
      "##곌": 8179,
      "##읖": 8180,
      "##쵱": 8181,
      "##켔": 8182,
      "##녇": 8183,
      "##푄": 8184,
      "##휄": 8185,
      "##뙈": 8186,
      "##꺌": 8187,
      "##룝": 8188,
      "##ㅍ": 8189,
      "##쫏": 8190,
      "##룪": 8191,
      "##혠": 8192,
      "##츳": 8193,
      "##띡": 8194,
      "##웂": 8195,
      "##젘": 8196,
      "##왹": 8197,
      "##쭙": 8198,
      "##핡": 8199,
      "##싴": 8200,
      "##닪": 8201,
      "##긘": 8202,
      "##읂": 8203,
      "##횩": 8204,
      "##쏫": 8205,
      "##홑": 8206,
      "##멨": 8207,
      "##늡": 8208,
      "##흫": 8209,
      "##칬": 8210,
      "##뵘": 8211,
      "##겿": 8212,
      "##꽊": 8213,
      "##촙": 8214,
      "##솢": 8215,
      "##씼": 8216,
      "##겤": 8217,
      "##읨": 8218,
      "##뼌": 8219,
      "##ㄳ": 8220,
      "##ㅣ": 8221,
      "##춣": 8222,
      "##빝": 8223,
      "##귕": 8224,
      "##읾": 8225,
      "##봥": 8226,
      "##닸": 8227,
      "##걕": 8228,
      "##쫜": 8229,
      "##뾱": 8230,
      "##욍": 8231,
      "##셑": 8232,
      "##ㄼ": 8233,
      "##흇": 8234,
      "##뷩": 8235,
      "##큉": 8236,
      "##쯧": 8237,
      "##꿎": 8238,
      "##툥": 8239,
      "##땔": 8240,
      "##쟘": 8241,
      "##잍": 8242,
      "##ㅚ": 8243,
      "##ㄵ": 8244,
      "##젴": 8245,
      "##쏩": 8246,
      "##흳": 8247,
      "##봔": 8248,
      "##쉡": 8249,
      "##힑": 8250,
      "##돞": 8251,
      "##앚": 8252,
      "##앋": 8253,
      "##흗": 8254,
      "##떘": 8255,
      "##쵠": 8256,
      "##럇": 8257,
      "##욿": 8258,
      "##숡": 8259,
      "##잨": 8260,
      "##눞": 8261,
      "##졓": 8262,
      "##뚦": 8263,
      "##욨": 8264,
      "##뱍": 8265,
      "##윾": 8266,
      "##뀬": 8267,
      "##깓": 8268,
      "##뱈": 8269,
      "##퉥": 8270,
      "##캑": 8271,
      "##늨": 8272,
      "##먐": 8273,
      "##꿜": 8274,
      "##큄": 8275,
      "##핟": 8276,
      "##쥼": 8277,
      "##긧": 8278,
      "##뭋": 8279,
      "##앖": 8280,
      "##덞": 8281,
      "##픘": 8282,
      "##쑬": 8283,
      "##햌": 8284,
      "##맜": 8285,
      "##쥆": 8286,
      "##쥡": 8287,
      "##콱": 8288,
      "##쟉": 8289,
      "##묫": 8290,
      "##봙": 8291,
      "##딓": 8292,
      "##걲": 8293,
      "##밷": 8294,
      "##뇸": 8295,
      "##뤂": 8296,
      "##ㅓ": 8297,
      "##씅": 8298,
      "##뿙": 8299,
      "##튵": 8300,
      "##첟": 8301,
      "##맓": 8302,
      "##팖": 8303,
      "##빶": 8304,
      "##팚": 8305,
      "##빪": 8306,
      "##챶": 8307,
      "##뻢": 8308,
      "##밣": 8309,
      "##욢": 8310,
      "##멆": 8311,
      "##첰": 8312,
      "##몾": 8313,
      "##썭": 8314,
      "##섢": 8315,
      "##텳": 8316,
      "##볃": 8317,
      "##쎥": 8318,
      "##챯": 8319,
      "##쑩": 8320,
      "##톧": 8321,
      "##츔": 8322,
      "##덯": 8323,
      "##엻": 8324,
      "##봗": 8325,
      "##읓": 8326,
      "##굇": 8327,
      "##띰": 8328,
      "##봴": 8329,
      "##씯": 8330,
      "##뜽": 8331,
      "##굡": 8332,
      "##묙": 8333,
      "##륩": 8334,
      "##텻": 8335,
      "##쉿": 8336,
      "##곺": 8337,
      "##묜": 8338,
      "##럾": 8339,
      "##췻": 8340,
      "##뱔": 8341,
      "##풩": 8342,
      "##긕": 8343,
      "##믕": 8344,
      "##곯": 8345,
      "##닡": 8346,
      "##똠": 8347,
      "##궷": 8348,
      "##잩": 8349,
      "##밦": 8350,
      "##뀝": 8351,
      "##곬": 8352,
      "##푈": 8353,
      "##섵": 8354,
      "##홇": 8355,
      "##릍": 8356,
      "##똟": 8357,
      "##솩": 8358,
      "##휭": 8359,
      "##멫": 8360,
      "##춖": 8361,
      "##렆": 8362,
      "##쁑": 8363,
      "##냨": 8364,
      "##뒵": 8365,
      "##뚧": 8366,
      "##랃": 8367,
      "##릏": 8368,
      "##곕": 8369,
      "##퇀": 8370,
      "##칯": 8371,
      "##퐅": 8372,
      "##닜": 8373,
      "##얂": 8374,
      "##롮": 8375,
      "##얬": 8376,
      "##낲": 8377,
      "##꼸": 8378,
      "##샄": 8379,
      "##쌧": 8380,
      "##쩟": 8381,
      "##혖": 8382,
      "##덬": 8383,
      "##옅": 8384,
      "##닻": 8385,
      "##솊": 8386,
      "##핮": 8387,
      "##봭": 8388,
      "##텆": 8389,
      "##굍": 8390,
      "##뢨": 8391,
      "##뗔": 8392,
      "##뵜": 8393,
      "##륻": 8394,
      "##튁": 8395,
      "##옜": 8396,
      "##귱": 8397,
      "##읳": 8398,
      "##죔": 8399,
      "##렺": 8400,
      "##삣": 8401,
      "##뱟": 8402,
      "##눋": 8403,
      "##햡": 8404,
      "##왝": 8405,
      "##넟": 8406,
      "##칰": 8407,
      "##섲": 8408,
      "##쨜": 8409,
      "##쎂": 8410,
      "##륷": 8411,
      "##렩": 8412,
      "##쎤": 8413,
      "##봰": 8414,
      "##렫": 8415,
      "##퍌": 8416,
      "##샣": 8417,
      "##뢔": 8418,
      "##펵": 8419,
      "##ㅟ": 8420,
      "##컄": 8421,
      "##횝": 8422,
      "##셱": 8423,
      "##읲": 8424,
      "##덪": 8425,
      "##왚": 8426,
      "##끜": 8427,
      "##멬": 8428,
      "##슺": 8429,
      "##눤": 8430,
      "##쉅": 8431,
      "##찦": 8432,
      "##볔": 8433,
      "##묀": 8434,
      "##켱": 8435,
      "##됙": 8436,
      "##눨": 8437,
      "##밠": 8438,
      "##녤": 8439,
      "##읅": 8440,
      "##횰": 8441,
      "##휜": 8442,
      "##굯": 8443,
      "##퀍": 8444,
      "##삠": 8445,
      "##뼐": 8446,
      "##훝": 8447,
      "##즹": 8448,
      "##혬": 8449,
      "##닽": 8450,
      "##씪": 8451,
      "##쵝": 8452,
      "##댗": 8453,
      "##곃": 8454,
      "##폑": 8455,
      "##뎄": 8456,
      "##듧": 8457,
      "##깰": 8458,
      "##렧": 8459,
      "##싮": 8460,
      "##븁": 8461,
      "##걋": 8462,
      "##푭": 8463,
      "##띕": 8464,
      "##븰": 8465,
      "##싿": 8466,
      "##끚": 8467,
      "##굑": 8468,
      "##섁": 8469,
      "##옃": 8470,
      "##팤": 8471,
      "##땝": 8472,
      "##옸": 8473,
      "##엳": 8474,
      "##똈": 8475,
      "##굛": 8476,
      "##읉": 8477,
      "##푱": 8478,
      "##뵥": 8479,
      "##볽": 8480,
      "##줓": 8481,
      "##뼙": 8482,
      "##첥": 8483,
      "##졁": 8484,
      "##븉": 8485,
      "##뜏": 8486,
      "##퍿": 8487,
      "##뿚": 8488,
      "##텈": 8489,
      "##뺠": 8490,
      "##첪": 8491,
      "##맠": 8492,
      "##먁": 8493,
      "##뻕": 8494,
      "##뺥": 8495,
      "##숞": 8496,
      "##찭": 8497,
      "##쌙": 8498,
      "##춝": 8499,
      "##븃": 8500,
      "##픁": 8501,
      "##욡": 8502,
      "##빢": 8503,
      "##춠": 8504,
      "##렡": 8505,
      "##핰": 8506,
      "##텱": 8507,
      "##뇔": 8508,
      "##읆": 8509,
      "##갃": 8510,
      "##륳": 8511,
      "##맍": 8512,
      "##헼": 8513,
      "##겴": 8514,
      "##뢱": 8515,
      "##밬": 8516,
      "##앛": 8517,
      "##늚": 8518,
      "##봑": 8519,
      "##탹": 8520,
      "##핯": 8521,
      "##컈": 8522,
      "##햿": 8523,
      "##냤": 8524,
      "##콙": 8525,
      "##뽜": 8526,
      "##쉩": 8527,
      "##쌞": 8528,
      "##뎔": 8529,
      "##앇": 8530,
      "##돥": 8531,
      "##햝": 8532,
      "##룃": 8533,
      "##먿": 8534,
      "##윘": 8535,
      "##옝": 8536,
      "##춟": 8537,
      "##맆": 8538,
      "##윻": 8539,
      "##쯜": 8540,
      "##꾕": 8541,
      "##곻": 8542,
      "##킫": 8543,
      "##옄": 8544,
      "##꺙": 8545,
      "##벘": 8546,
      "##둿": 8547,
      "##킄": 8548,
      "##쟜": 8549,
      "##쮜": 8550,
      "##옉": 8551,
      "##숌": 8552,
      "##쫴": 8553,
      "##옶": 8554,
      "##쏵": 8555,
      "##룦": 8556,
      "##쬼": 8557,
      "##븥": 8558,
      "##읻": 8559,
      "##힁": 8560,
      "##뱋": 8561,
      "##췇": 8562,
      "##놘": 8563,
      "##졒": 8564,
      "##룯": 8565,
      "##춏": 8566,
      "##푁": 8567,
      "##쒼": 8568,
      "##쎔": 8569,
      "##뼁": 8570,
      "##뷁": 8571,
      "##촣": 8572,
      "##윖": 8573,
      "##칀": 8574,
      "##촾": 8575,
      "##샊": 8576,
      "##즨": 8577,
      "##썪": 8578,
      "##됸": 8579,
      "##츱": 8580,
      "##멊": 8581,
      "##톩": 8582,
      "##럈": 8583,
      "##쾽": 8584,
      "##큣": 8585,
      "##씜": 8586,
      "##롲": 8587,
      "##틂": 8588,
      "##쨥": 8589,
      "##쇨": 8590,
      "##춬": 8591,
      "##듫": 8592,
      "##쿸": 8593,
      "##깢": 8594,
      "##읮": 8595,
      "##뵬": 8596,
      "##숧": 8597,
      "##삝": 8598,
      "##혤": 8599,
      "##웕": 8600,
      "##뵝": 8601,
      "##큾": 8602,
      "##벖": 8603,
      "##슶": 8604,
      "##텂": 8605,
      "##굅": 8606,
      "##횄": 8607,
      "##퓻": 8608,
      "##쌜": 8609,
      "##넒": 8610,
      "##젫": 8611,
      "##떢": 8612,
      "##띱": 8613,
      "##ㅛ": 8614,
      "##릋": 8615,
      "##쬠": 8616,
      "##둟": 8617,
      "##롼": 8618,
      "##맗": 8619,
      "##졷": 8620,
      "##캪": 8621,
      "##궉": 8622,
      "##쯱": 8623,
      "##훟": 8624,
      "##됢": 8625,
      "##곷": 8626,
      "##뉩": 8627,
      "##챸": 8628,
      "##탘": 8629,
      "##킅": 8630,
      "##풂": 8631,
      "##툇": 8632,
      "##촥": 8633,
      "##좽": 8634,
      "##춪": 8635,
      "##섨": 8636,
      "##뜅": 8637,
      "##쩻": 8638,
      "##앸": 8639,
      "##읋": 8640,
      "##뵉": 8641,
      "##쯕": 8642,
      "##듲": 8643,
      "##깞": 8644,
      "##탲": 8645,
      "##뎋": 8646,
      "##껠": 8647,
      "##솰": 8648,
      "##뽓": 8649,
      "##턔": 8650,
      "##뫤": 8651,
      "##듁": 8652,
      "##젅": 8653,
      "##읐": 8654,
      "##딬": 8655,
      "##젇": 8656,
      "##훯": 8657,
      "##헁": 8658,
      "##톅": 8659,
      "##긎": 8660,
      "##꺘": 8661,
      "##켭": 8662,
      "##싑": 8663,
      "##폳": 8664,
      "##쭸": 8665,
      "##묠": 8666,
      "##곅": 8667,
      "##깩": 8668,
      "##즞": 8669,
      "##컽": 8670,
      "##럲": 8671,
      "##겥": 8672,
      "##틘": 8673,
      "##뜷": 8674,
      "##햠": 8675,
      "##숸": 8676,
      "##죗": 8677,
      "##쪙": 8678,
      "##괁": 8679,
      "##캢": 8680,
      "##롴": 8681,
      "##떪": 8682,
      "##늧": 8683,
      "##읔": 8684,
      "##쬘": 8685,
      "##닾": 8686,
      "##홓": 8687,
      "##퍙": 8688,
      "##놑": 8689,
      "##첱": 8690,
      "##맂": 8691,
      "##킽": 8692,
      "##옰": 8693,
      "##꿴": 8694,
      "##캍": 8695,
      "##뻰": 8696,
      "##륐": 8697,
      "##곀": 8698,
      "##쫗": 8699,
      "##봏": 8700,
      "##눝": 8701,
      "##쾩": 8702,
      "##횜": 8703,
      "##랲": 8704,
      "##묏": 8705,
      "##쵀": 8706,
      "##뗴": 8707,
      "##툉": 8708,
      "##삾": 8709,
      "##웱": 8710,
      "##좝": 8711,
      "##솤": 8712,
      "##깋": 8713,
      "##짦": 8714,
      "##좠": 8715,
      "##욯": 8716,
      "##돘": 8717,
      "##휫": 8718,
      "##싷": 8719,
      "##왘": 8720,
      "##섐": 8721,
      "##쏨": 8722,
      "##퓬": 8723,
      "##솸": 8724,
      "##릃": 8725,
      "##줅": 8726,
      "##췹": 8727,
      "##힢": 8728,
      "##땉": 8729,
      "##팂": 8730,
      "##홐": 8731,
      "##픤": 8732,
      "##튝": 8733,
      "##셖": 8734,
      "##듥": 8735,
      "##쥥": 8736,
      "##줒": 8737,
      "##뺍": 8738,
      "##냧": 8739,
      "##픝": 8740,
      "##틊": 8741,
      "##푣": 8742,
      "##즥": 8743,
      "##탴": 8744,
      "##믏": 8745,
      "##뭬": 8746,
      "##긑": 8747,
      "##앎": 8748,
      "##엙": 8749,
      "##늗": 8750,
      "##쾃": 8751,
      "##룓": 8752,
      "##괗": 8753,
      "##컶": 8754,
      "##귝": 8755,
      "##됮": 8756,
      "##뿠": 8757,
      "##핧": 8758,
      "##퉷": 8759,
      "##럊": 8760,
      "##녗": 8761,
      "##뎍": 8762,
      "##샼": 8763,
      "##뇝": 8764,
      "##퓐": 8765,
      "##긤": 8766,
      "##넗": 8767,
      "##밼": 8768,
      "##뜌": 8769,
      "##죰": 8770,
      "##뫠": 8771,
      "##퐂": 8772,
      "##옿": 8773,
      "##쳰": 8774,
      "##쎴": 8775,
      "##햣": 8776,
      "##쎠": 8777,
      "##뭭": 8778,
      "##섦": 8779,
      "##똴": 8780,
      "##괨": 8781,
      "##퍭": 8782,
      "##혅": 8783,
      "##뮥": 8784,
      "##룄": 8785,
      "##븟": 8786,
      "##얩": 8787,
      "##뚮": 8788,
      "##쐙": 8789,
      "##뽟": 8790,
      "##뻼": 8791,
      "##빧": 8792,
      "##쿹": 8793,
      "##찣": 8794,
      "##귬": 8795,
      "##좍": 8796,
      "##댇": 8797,
      "##쏸": 8798,
      "##뮹": 8799,
      "##늇": 8800,
      "##냊": 8801,
      "##앃": 8802,
      "##칳": 8803,
      "##빟": 8804,
      "##긺": 8805,
      "##쟙": 8806,
      "##먺": 8807,
      "##턀": 8808,
      "##텣": 8809,
      "##빆": 8810,
      "##녬": 8811,
      "##갅": 8812,
      "##쐈": 8813,
      "##겯": 8814,
      "##끎": 8815,
      "##쎕": 8816,
      "##쎾": 8817,
      "##걑": 8818,
      "##걹": 8819,
      "##딯": 8820,
      "##잋": 8821,
      "##뭥": 8822,
      "##믱": 8823,
      "##칲": 8824,
      "##흽": 8825,
      "##륾": 8826,
      "##쩄": 8827,
      "##챂": 8828,
      "##롓": 8829,
      "##릂": 8830,
      "##웄": 8831,
      "##쾍": 8832,
      "##볻": 8833,
      "##찯": 8834,
      "##텰": 8835,
      "##짆": 8836,
      "##녅": 8837,
      "##탙": 8838,
      "##뤈": 8839,
      "##둗": 8840,
      "##뺘": 8841,
      "##콛": 8842,
      "##꽅": 8843,
      "##궄": 8844,
      "##뻄": 8845,
      "##녿": 8846,
      "##줗": 8847,
      "##쌋": 8848,
      "##톔": 8849,
      "##녛": 8850,
      "##렿": 8851,
      "##랓": 8852,
      "##얙": 8853,
      "##텉": 8854,
      "##뒜": 8855,
      "##쬈": 8856,
      "##왯": 8857,
      "##츕": 8858,
      "##힜": 8859,
      "##덷": 8860,
      "##옢": 8861,
      "##쯪": 8862,
      "##듳": 8863,
      "##졩": 8864,
      "##뺕": 8865,
      "##쨎": 8866,
      "##볫": 8867,
      "##잲": 8868,
      "##껼": 8869,
      "##슮": 8870,
      "##뾔": 8871,
      "##쿽": 8872,
      "##밲": 8873,
      "##춸": 8874,
      "##쪾": 8875,
      "##벜": 8876,
      "##렣": 8877,
      "##럶": 8878,
      "##퀭": 8879,
      "##뼼": 8880,
      "##쉕": 8881,
      "##돳": 8882,
      "##캭": 8883,
      "##낧": 8884,
      "##낐": 8885,
      "##슊": 8886,
      "##읰": 8887,
      "##꾾": 8888,
      "##윚": 8889,
      "##샦": 8890,
      "##홱": 8891,
      "##뱝": 8892,
      "##멌": 8893,
      "##쳎": 8894,
      "##읶": 8895,
      "##썷": 8896,
      "##콮": 8897,
      "##짴": 8898,
      "##춯": 8899,
      "##롁": 8900,
      "##뜁": 8901,
      "##젒": 8902,
      "##봎": 8903,
      "##옦": 8904,
      "##첢": 8905,
      "##튲": 8906,
      "##퍐": 8907,
      "##옼": 8908,
      "##뭎": 8909,
      "##닰": 8910,
      "##몳": 8911,
      "##빣": 8912,
      "##췩": 8913,
      "##퍾": 8914,
      "##쐌": 8915,
      "##붚": 8916,
      "##쨀": 8917,
      "##훡": 8918,
      "##넖": 8919,
      "##읹": 8920,
      "##껃": 8921,
      "##츩": 8922,
      "##럕": 8923,
      "##븩": 8924,
      "##꿝": 8925,
      "##뒁": 8926,
      "##핦": 8927,
      "##봊": 8928,
      "##햊": 8929,
      "##몼": 8930,
      "##풓": 8931,
      "##룜": 8932,
      "##듷": 8933,
      "##듼": 8934,
      "##럅": 8935,
      "##쀏": 8936,
      "##딍": 8937,
      "##푿": 8938,
      "##댤": 8939,
      "##욷": 8940,
      "##젷": 8941,
      "##웓": 8942,
      "##햙": 8943,
      "##얒": 8944,
      "##굻": 8945,
      "##딭": 8946,
      "##쵹": 8947,
      "##톶": 8948,
      "##톷": 8949,
      "##봠": 8950,
      "##죱": 8951,
      "##쮠": 8952,
      "##빏": 8953,
      "##튓": 8954,
      "##꼔": 8955,
      "##욛": 8956,
      "##뫁": 8957,
      "##섧": 8958,
      "##걩": 8959,
      "##뽥": 8960,
      "##퇸": 8961,
      "##끋": 8962,
      "##ㅀ": 8963,
      "##렦": 8964,
      "##햭": 8965,
      "##툠": 8966,
      "##맿": 8967,
      "##쒹": 8968,
      "##궹": 8969,
      "##쨴": 8970,
      "##볗": 8971,
      "##늩": 8972,
      "##뎟": 8973,
      "##믌": 8974,
      "##췸": 8975,
      "##댼": 8976,
      "##싐": 8977,
      "##웒": 8978,
      "##뙨": 8979,
      "##왴": 8980,
      "##쒔": 8981,
      "##캰": 8982,
      "##췽": 8983,
      "##뇻": 8984,
      "##껙": 8985,
      "##옞": 8986,
      "##첞": 8987,
      "##켚": 8988,
      "##떺": 8989,
      "##훋": 8990,
      "##긐": 8991,
      "##챀": 8992,
      "##줁": 8993,
      "##삻": 8994,
      "##춴": 8995,
      "##죨": 8996,
      "##냌": 8997,
      "##쑝": 8998,
      "##캆": 8999,
      "##뗠": 9000,
      "##탣": 9001,
      "##괂": 9002,
      "##튻": 9003,
      "##둇": 9004,
      "##궙": 9005,
      "##ㅑ": 9006,
      "##맄": 9007,
      "##롐": 9008,
      "##턕": 9009,
      "##썡": 9010,
      "##웣": 9011,
      "##욹": 9012,
      "##쥭": 9013,
      "##겂": 9014,
      "##삷": 9015,
      "##뗬": 9016,
      "##밻": 9017,
      "##퀌": 9018,
      "##쩧": 9019,
      "##줸": 9020,
      "##왬": 9021,
      "##텩": 9022,
      "##뼜": 9023,
      "##찎": 9024,
      "##둰": 9025,
      "##쭛": 9026,
      "##욈": 9027,
      "##껩": 9028,
      "##잧": 9029,
      "##좼": 9030,
      "##돸": 9031,
      "##츅": 9032,
      "##탏": 9033,
      "##셒": 9034,
      "##둺": 9035,
      "##랰": 9036,
      "##놯": 9037,
      "##쇅": 9038,
      "##뻠": 9039,
      "##똧": 9040,
      "##븓": 9041,
      "##섿": 9042,
      "##긇": 9043,
      "##엃": 9044,
      "##횹": 9045,
      "##첮": 9046,
      "##셐": 9047,
      "##낛": 9048,
      "##겫": 9049,
      "##벛": 9050,
      "##걜": 9051,
      "##팉": 9052,
      "##챳": 9053,
      "##찓": 9054,
      "##숬": 9055,
      "##쩼": 9056,
      "##묑": 9057,
      "##륍": 9058,
      "##텥": 9059,
      "##뿨": 9060,
      "##쀠": 9061,
      "##쀄": 9062,
      "##쌱": 9063,
      "##덍": 9064,
      "##윢": 9065,
      "##즡": 9066,
      "##앐": 9067,
      "##숼": 9068,
      "##쒠": 9069,
      "##딋": 9070,
      "##낔": 9071,
      "##텋": 9072,
      "##뫃": 9073,
      "##짒": 9074,
      "##섺": 9075,
      "##죻": 9076,
      "##윛": 9077,
      "##뮺": 9078,
      "##욣": 9079,
      "##흅": 9080,
      "##겈": 9081,
      "##맻": 9082,
      "##핱": 9083,
      "##툄": 9084,
      "##홗": 9085,
      "##좟": 9086,
      "##궅": 9087,
      "##샆": 9088,
      "##웈": 9089,
      "##붵": 9090,
      "##갶": 9091,
      "##뚣": 9092,
      "##벍": 9093,
      "##쥻": 9094,
      "##툹": 9095,
      "##탃": 9096,
      "##쁓": 9097,
      "##뿗": 9098,
      "##뷹": 9099,
      "##먚": 9100,
      "##춢": 9101,
      "##맚": 9102,
      "##몲": 9103,
      "##뵭": 9104,
      "##탇": 9105,
      "##촑": 9106,
      "##쁕": 9107,
      "##뾹": 9108,
      "##얓": 9109,
      "##뷷": 9110,
      "##푧": 9111,
      "##꺃": 9112,
      "##밶": 9113,
      "##뺵": 9114,
      "##뢀": 9115,
      "##삲": 9116,
      "##쏱": 9117,
      "##픅": 9118,
      "##켵": 9119,
      "##젧": 9120,
      "##궇": 9121,
      "##쩅": 9122,
      "##맔": 9123,
      "##옽": 9124,
      "##쇻": 9125,
      "##륏": 9126,
      "##뗻": 9127,
      "##띧": 9128,
      "##띃": 9129,
      "##갆": 9130,
      "##꿱": 9131,
      "##졽": 9132,
      "##엯": 9133,
      "##엱": 9134,
      "##엵": 9135,
      "##뗣": 9136,
      "##톃": 9137,
      "##풄": 9138,
      "##룺": 9139,
      "##촢": 9140,
      "##뻚": 9141,
      "##첲": 9142,
      "##봆": 9143,
      "##몉": 9144,
      "##촏": 9145,
      "##섡": 9146,
      "##풏": 9147,
      "##쓚": 9148,
      "##퓳": 9149,
      "##톁": 9150,
      "##엗": 9151,
      "##졎": 9152,
      "##옺": 9153,
      "##폅": 9154,
      "##댝": 9155,
      "##긊": 9156,
      "##뿑": 9157,
      "##랔": 9158,
      "##뎊": 9159,
      "##틐": 9160,
      "##쥽": 9161,
      "##붏": 9162,
      "##괍": 9163,
      "##믁": 9164,
      "##뤅": 9165,
      "##귘": 9166,
      "##밂": 9167,
      "##롹": 9168,
      "##몿": 9169,
      "##멭": 9170,
      "##볖": 9171,
      "##겇": 9172,
      "##켇": 9173,
      "##깾": 9174,
      "##싄": 9175,
      "##댛": 9176,
      "##쨚": 9177,
      "##겢": 9178,
      "##쎼": 9179,
      "##쳠": 9180,
      "##갋": 9181,
      "##쵤": 9182,
      "##엪": 9183,
      "##듨": 9184,
      "##웑": 9185,
      "##얖": 9186,
      "##섟": 9187,
      "##넫": 9188,
      "##귭": 9189,
      "##튔": 9190,
      "##럗": 9191,
      "##잳": 9192,
      "##샂": 9193,
      "##줭": 9194,
      "##볒": 9195,
      "##뚥": 9196,
      "##걺": 9197,
      "##툏": 9198,
      "##삜": 9199,
      "##뢉": 9200,
      "##궘": 9201,
      "##샡": 9202,
      "##풆": 9203,
      "##컼": 9204,
      "##뗗": 9205,
      "##잪": 9206,
      "##줃": 9207,
      "##꿸": 9208,
      "##갴": 9209,
      "##뎈": 9210,
      "##붋": 9211,
      "##뽝": 9212,
      "##죅": 9213,
      "##엫": 9214,
      "##쀵": 9215,
      "##닊": 9216,
      "##짅": 9217,
      "##멂": 9218,
      "##핣": 9219,
      "##뻿": 9220,
      "##흨": 9221,
      "##킼": 9222,
      "##촠": 9223,
      "##홞": 9224,
      "##걿": 9225,
      "##뚭": 9226,
      "##턩": 9227,
      "##팏": 9228,
      "##줕": 9229,
      "##셁": 9230,
      "##앢": 9231,
      "##뤀": 9232,
      "##댰": 9233,
      "##쬭": 9234,
      "##놌": 9235,
      "##뭴": 9236,
      "##팈": 9237,
      "##읁": 9238,
      "##핞": 9239,
      "##혿": 9240,
      "##햺": 9241,
      "##줋": 9242,
      "##턜": 9243,
      "##얭": 9244,
      "##껚": 9245,
      "##뀽": 9246,
      "##짗": 9247,
      "##졨": 9248,
      "##웧": 9249,
      "##춌": 9250,
      "##놰": 9251,
      "##텢": 9252,
      "##돰": 9253,
      "##웥": 9254,
      "##췼": 9255,
      "##봍": 9256,
      "##넚": 9257,
      "##푕": 9258,
      "##욺": 9259,
      "##홛": 9260,
      "##킐": 9261,
      "##찶": 9262,
      "##훓": 9263,
      "##뫅": 9264,
      "##믑": 9265,
      "##섥": 9266,
      "##뢭": 9267,
      "##렼": 9268,
      "##뼝": 9269,
      "##띀": 9270,
      "##똗": 9271,
      "##믨": 9272,
      "##꾿": 9273,
      "##춀": 9274,
      "##앻": 9275,
      "##퐄": 9276,
      "##탞": 9277,
      "##떋": 9278,
      "##싢": 9279,
      "##늖": 9280,
      "##뿛": 9281,
      "##쁫": 9282,
      "##홴": 9283,
      "##쯥": 9284,
      "##밫": 9285,
      "##폘": 9286,
      "##랕": 9287,
      "##좈": 9288,
      "##낢": 9289,
      "##뽂": 9290,
      "##뿝": 9291,
      "##껒": 9292,
      "##깂": 9293,
      "##뽱": 9294,
      "##툘": 9295,
      "##눳": 9296,
      "##옾": 9297,
      "##럂": 9298,
      "##궩": 9299,
      "##펕": 9300,
      "##뤙": 9301,
      "##뒸": 9302,
      "##떫": 9303,
      "##핓": 9304,
      "##럯": 9305,
      "##웇": 9306,
      "##곖": 9307,
      "##쵮": 9308,
      "##곲": 9309,
      "##읪": 9310,
      "##잫": 9311,
      "##륲": 9312,
      "##뇹": 9313,
      "##쥇": 9314,
      "##읩": 9315,
      "##럖": 9316,
      "##롵": 9317,
      "##휳": 9318,
      "##꾈": 9319,
      "##넎": 9320,
      "##쇰": 9321,
      "##줠": 9322,
      "##옯": 9323,
      "##섷": 9324,
      "##졇": 9325,
      "##셫": 9326,
      "##븿": 9327,
      "##쨓": 9328,
      "##줼": 9329,
      "##엍": 9330,
      "##뫨": 9331,
      "##걈": 9332,
      "##옧": 9333,
      "##귺": 9334,
      "##짋": 9335,
      "##칞": 9336,
      "##렂": 9337,
      "##믖": 9338,
      "##쐰": 9339,
      "##쪠": 9340,
      "##몁": 9341,
      "##픐": 9342,
      "##괋": 9343,
      "##봨": 9344,
      "##겓": 9345,
      "##칻": 9346,
      "##젋": 9347,
      "##붼": 9348,
      "##깵": 9349,
      "##쨖": 9350,
      "##쩽": 9351,
      "##뀿": 9352,
      "##ㄿ": 9353,
      "##멵": 9354,
      "##휑": 9355,
      "##맅": 9356,
      "##갿": 9357,
      "##멷": 9358,
      "##덚": 9359,
      "##뿤": 9360,
      "##늎": 9361,
      "##줚": 9362,
      "##굗": 9363,
      "##깤": 9364,
      "##쏼": 9365,
      "##힞": 9366,
      "##뻴": 9367,
      "##뼞": 9368,
      "##묬": 9369,
      "##텪": 9370,
      "##뻞": 9371,
      "##텸": 9372,
      "##뾲": 9373,
      "##엸": 9374,
      "##묚": 9375,
      "##쑍": 9376,
      "##봀": 9377,
      "##몮": 9378,
      "##뽚": 9379,
      "##봃": 9380,
      "##뻒": 9381,
      "##얆": 9382,
      "##쟛": 9383,
      "##긩": 9384,
      "##왰": 9385,
      "##픓": 9386,
      "##헰": 9387,
      "##샠": 9388,
      "##뗳": 9389,
      "##뀍": 9390,
      "##랅": 9391,
      "##륿": 9392,
      "##꽜": 9393,
      "##햎": 9394,
      "##휏": 9395,
      "##춋": 9396,
      "##붭": 9397,
      "##뻉": 9398,
      "##븬": 9399,
      "##놩": 9400,
      "##쟸": 9401,
      "##졕": 9402,
      "##퇗": 9403,
      "##빘": 9404,
      "##섏": 9405,
      "##엢": 9406,
      "##혂": 9407,
      "##짫": 9408,
      "##벉": 9409,
      "##옫": 9410,
      "##쎳": 9411,
      "##웋": 9412,
      "##괃": 9413,
      "##젶": 9414,
      "##뮝": 9415,
      "##갂": 9416,
      "##쩃": 9417,
      "##뗍": 9418,
      "##놕": 9419,
      "##죶": 9420,
      "##썜": 9421,
      "##궆": 9422,
      "##둦": 9423,
      "##흼": 9424,
      "##똏": 9425,
      "##켮": 9426,
      "##늤": 9427,
      "##쎵": 9428,
      "##얫": 9429,
      "##줎": 9430,
      "##팒": 9431,
      "##쬮": 9432,
      "##읈": 9433,
      "##젰": 9434,
      "##읿": 9435,
      "##콬": 9436,
      "##띾": 9437,
      "##쟄": 9438,
      "##닟": 9439,
      "##탗": 9440,
      "##핝": 9441,
      "##씡": 9442,
      "##딹": 9443,
      "##릵": 9444,
      "##즴": 9445,
      "##듰": 9446,
      "##뀪": 9447,
      "##틷": 9448,
      "##땽": 9449,
      "##쳴": 9450,
      "##쇱": 9451,
      "##붘": 9452,
      "##썀": 9453,
      "##붖": 9454,
      "##궶": 9455,
      "##궫": 9456,
      "##궻": 9457,
      "##랤": 9458,
      "##궢": 9459,
      "##쎀": 9460,
      "##잚": 9461,
      "##놥": 9462,
      "##죾": 9463,
      "##꾁": 9464,
      "##릣": 9465,
      "##멑": 9466,
      "##밐": 9467,
      "##퐛": 9468,
      "##쁀": 9469,
      "##걌": 9470,
      "##뭈": 9471,
      "##쌴": 9472,
      "##꿂": 9473,
      "##짞": 9474,
      "##쇘": 9475,
      "##뻇": 9476,
      "##틜": 9477,
      "##쐇": 9478,
      "##륮": 9479,
      "##릾": 9480,
      "##졐": 9481,
      "##샇": 9482,
      "##춛": 9483,
      "##헑": 9484,
      "##킌": 9485,
      "##쮤": 9486,
      "##앏": 9487,
      "##쉪": 9488,
      "##괬": 9489,
      "##꿑": 9490,
      "##젲": 9491,
      "##뎝": 9492,
      "##뀢": 9493,
      "##옂": 9494,
      "##츸": 9495,
      "##콫": 9496,
      "##앀": 9497,
      "##깧": 9498,
      "##쟆": 9499,
      "##섾": 9500,
      "##쨕": 9501,
      "##좜": 9502,
      "##쎙": 9503,
      "##찏": 9504,
      "##힡": 9505,
      "##듟": 9506,
      "##럑": 9507,
      "##뼸": 9508,
      "##샽": 9509,
      "##끛": 9510,
      "##쿜": 9511,
      "##맒": 9512,
      "##듩": 9513,
      "##퉐": 9514,
      "##읯": 9515,
      "##륒": 9516,
      "##릘": 9517,
      "##럻": 9518,
      "##몈": 9519,
      "##꺵": 9520,
      "##덭": 9521,
      "##랋": 9522,
      "##뭊": 9523,
      "##퐑": 9524,
      "##솧": 9525,
      "##왤": 9526,
      "##쎘": 9527,
      "##딮": 9528,
      "##왉": 9529,
      "##띙": 9530,
      "##퇄": 9531,
      "##궬": 9532,
      "##쌸": 9533,
      "##뮷": 9534,
      "##뷱": 9535,
      "##뤵": 9536,
      "##뜍": 9537,
      "##괠": 9538,
      "##껵": 9539,
      "##뗜": 9540,
      "##싲": 9541,
      "##벝": 9542,
      "##넡": 9543,
      "##떗": 9544,
      "##싔": 9545,
      "##읙": 9546,
      "##뺃": 9547,
      "##췜": 9548,
      "##졶": 9549,
      "##웦": 9550,
      "##퓜": 9551,
      "##됻": 9552,
      "##렄": 9553,
      "##듴": 9554,
      "##쁌": 9555,
      "##댘": 9556,
      "##핕": 9557,
      "##엜": 9558,
      "##끱": 9559,
      "##벐": 9560,
      "##뮉": 9561,
      "##궨": 9562,
      "##귔": 9563,
      "##쁴": 9564,
      "##푴": 9565,
      "##쩎": 9566,
      "##릡": 9567,
      "##홯": 9568,
      "##덙": 9569,
      "##훚": 9570,
      "##핪": 9571,
      "##돷": 9572,
      "##컺": 9573,
      "##틥": 9574,
      "##뼵": 9575,
      "##핃": 9576,
      "##긂": 9577,
      "##싨": 9578,
      "##촟": 9579,
      "##뷤": 9580,
      "##놬": 9581,
      "##뇄": 9582,
      "##슫": 9583,
      "##뾆": 9584,
      "##굦": 9585,
      "##끵": 9586,
      "##똽": 9587,
      "##젏": 9588,
      "##둧": 9589,
      "##펔": 9590,
      "##넑": 9591,
      "##쯘": 9592,
      "##딈": 9593,
      "##톹": 9594,
      "##쭹": 9595,
      "##쵁": 9596,
      "##찤": 9597,
      "##땛": 9598,
      "##샒": 9599,
      "##싟": 9600,
      "##쌂": 9601,
      "##앧": 9602,
      "##붰": 9603,
      "##뻭": 9604,
      "##읇": 9605,
      "##뫟": 9606,
      "##챽": 9607,
      "##팢": 9608,
      "##룱": 9609,
      "##핒": 9610,
      "##돵": 9611,
      "##킝": 9612,
      "##넠": 9613,
      "##눚": 9614,
      "##쨤": 9615,
      "##쓿": 9616,
      "##붗": 9617,
      "##믺": 9618,
      "##챻": 9619,
      "##뿕": 9620,
      "##뿏": 9621,
      "##쳧": 9622,
      "##솑": 9623,
      "##멏": 9624,
      "##뾻": 9625,
      "##옲": 9626,
      "##뱛": 9627,
      "##뱜": 9628,
      "##퍘": 9629,
      "##뚢": 9630,
      "##턓": 9631,
      "##쁋": 9632,
      "##첯": 9633,
      "##먏": 9634,
      "##몱": 9635,
      "##뺟": 9636,
      "##뵫": 9637,
      "##뮽": 9638,
      "##릠": 9639,
      "##앺": 9640,
      "##슿": 9641,
      "##웴": 9642,
      "##뱨": 9643,
      "##븸": 9644,
      "##캌": 9645,
      "##똡": 9646,
      "##뒥": 9647,
      "##쮓": 9648,
      "##랟": 9649,
      "##핻": 9650,
      "##윸": 9651,
      "##핛": 9652,
      "##뚸": 9653,
      "##덈": 9654,
      "##떎": 9655,
      "##뗵": 9656,
      "##럳": 9657,
      "##쭊": 9658,
      "##힠": 9659,
      "##껰": 9660,
      "##롖": 9661,
      "##팓": 9662,
      "##뻙": 9663,
      "##묷": 9664,
      "##욭": 9665,
      "##뒇": 9666,
      "##왭": 9667,
      "##쓉": 9668,
      "##넞": 9669,
      "##뇓": 9670,
      "##끾": 9671,
      "##퉅": 9672,
      "##젞": 9673,
      "##킻": 9674,
      "##듪": 9675,
      "##룴": 9676,
      "##됱": 9677,
      "##톕": 9678,
      "##랮": 9679,
      "##갵": 9680,
      "##켘": 9681,
      "##숳": 9682,
      "##틏": 9683,
      "##쿗": 9684,
      "##닶": 9685,
      "##홣": 9686,
      "##쁭": 9687,
      "##쵭": 9688,
      "##욮": 9689,
      "##싁": 9690,
      "##쭷": 9691,
      "##듡": 9692,
      "##뚞": 9693,
      "##쟠": 9694,
      "##봌": 9695,
      "##홬": 9696,
      "##벴": 9697,
      "##꾐": 9698,
      "##풒": 9699,
      "##턷": 9700,
      "##웉": 9701,
      "##탾": 9702,
      "##섄": 9703,
      "##훽": 9704,
      "##쫐": 9705,
      "##떯": 9706,
      "##뷇": 9707,
      "##뒝": 9708,
      "##젣": 9709,
      "##셯": 9710,
      "##댚": 9711,
      "##뀀": 9712,
      "##싕": 9713,
      "##뛈": 9714,
      "##쥪": 9715,
      "##뱩": 9716,
      "##뽍": 9717,
      "##윶": 9718,
      "##먜": 9719,
      "##릔": 9720,
      "##떷": 9721,
      "##핢": 9722,
      "##붱": 9723,
      "##릁": 9724,
      "##팣": 9725,
      "##욳": 9726,
      "##햫": 9727,
      "##륶": 9728,
      "##둞": 9729,
      "##쉛": 9730,
      "##뼱": 9731,
      "##좦": 9732,
      "##쁶": 9733,
      "##쭚": 9734,
      "##몔": 9735,
      "##졛": 9736,
      "##섻": 9737,
      "##븗": 9738,
      "##탆": 9739,
      "##졺": 9740,
      "##뤟": 9741,
      "##닲": 9742,
      "##햋": 9743,
      "##닂": 9744,
      "##뺩": 9745,
      "##돧": 9746,
      "##턤": 9747,
      "##졑": 9748,
      "##뺸": 9749,
      "##푷": 9750,
      "##홝": 9751,
      "##샏": 9752,
      "##렾": 9753,
      "##걵": 9754,
      "##줆": 9755,
      "##콀": 9756,
      "##뚀": 9757,
      "##겣": 9758,
      "##윥": 9759,
      "##듶": 9760,
      "##탒": 9761,
      "##듮": 9762,
      "##됑": 9763,
      "##쿙": 9764,
      "##뿰": 9765,
      "##됂": 9766,
      "##밯": 9767,
      "##퀙": 9768,
      "##졊": 9769,
      "##죚": 9770,
      "##먑": 9771,
      "##묺": 9772,
      "##묹": 9773,
      "##왷": 9774,
      "##욉": 9775,
      "##칢": 9776,
      "##떦": 9777,
      "##걐": 9778,
      "##둻": 9779,
      "##쟴": 9780,
      "##쯋": 9781,
      "##뀩": 9782,
      "##렞": 9783,
      "##긿": 9784,
      "##잕": 9785,
      "##퀩": 9786,
      "##쇐": 9787,
      "##땊": 9788,
      "##찴": 9789,
      "##뿞": 9790,
      "##붛": 9791,
      "##첦": 9792,
      "##쌵": 9793,
      "##쎨": 9794,
      "##윲": 9795,
      "##엺": 9796,
      "##퓴": 9797,
      "##촎": 9798,
      "##쪈": 9799,
      "##쳌": 9800,
      "##겕": 9801,
      "##냙": 9802,
      "##샸": 9803,
      "##폇": 9804,
      "##젃": 9805,
      "##몊": 9806,
      "##끆": 9807,
      "##첡": 9808,
      "##몷": 9809,
      "##뽛": 9810,
      "##욙": 9811,
      "##쳕": 9812,
      "##뵷": 9813,
      "##챣": 9814,
      "##쀿": 9815,
      "##춭": 9816,
      "##뼢": 9817,
      "##뵲": 9818,
      "##먖": 9819,
      "##뱦": 9820,
      "##툝": 9821,
      "##춗": 9822,
      "##죥": 9823,
      "##뻟": 9824,
      "##튳": 9825,
      "##퓵": 9826,
      "##돜": 9827,
      "##웗": 9828,
      "##틇": 9829,
      "##혭": 9830,
      "##멛": 9831,
      "##섈": 9832,
      "##뤡": 9833,
      "##놃": 9834,
      "##죘": 9835,
      "##똫": 9836,
      "##퉹": 9837,
      "##욼": 9838,
      "##꼄": 9839,
      "##끨": 9840,
      "##핤": 9841,
      "##섩": 9842,
      "##봫": 9843,
      "##믇": 9844,
      "##튑": 9845,
      "##앾": 9846,
      "##멐": 9847,
      "##뵶": 9848,
      "##볹": 9849,
      "##똩": 9850,
      "##뺦": 9851,
      "##뽒": 9852,
      "##튦": 9853,
      "##먘": 9854,
      "##먆": 9855,
      "##뵸": 9856,
      "##봈": 9857,
      "##묦": 9858,
      "##솒": 9859,
      "##첧": 9860,
      "##멽": 9861,
      "##뽇": 9862,
      "##펁": 9863,
      "##벯": 9864,
      "##뵻": 9865,
      "##엋": 9866,
      "##덝": 9867,
      "##땇": 9868,
      "##뉽": 9869,
      "##밮": 9870,
      "##뭃": 9871,
      "##챷": 9872,
      "##촓": 9873,
      "##뗡": 9874,
      "##됓": 9875,
      "##둄": 9876,
      "##괻": 9877,
      "##욝": 9878,
      "##찪": 9879,
      "##씄": 9880,
      "##솏": 9881,
      "##먠": 9882,
      "##븕": 9883,
      "##잛": 9884,
      "##덣": 9885,
      "##꿃": 9886,
      "##곆": 9887,
      "##돱": 9888,
      "##팊": 9889,
      "##섳": 9890,
      "##쵄": 9891,
      "##겾": 9892,
      "##딳": 9893,
      "##턁": 9894,
      "##땈": 9895,
      "##뿒": 9896,
      "##퉀": 9897,
      "##벎": 9898,
      "##볎": 9899,
      "##츎": 9900,
      "##셙": 9901,
      "##춨": 9902,
      "##됺": 9903,
      "##뻦": 9904,
      "##쓜": 9905,
      "##싽": 9906,
      "##쏝": 9907,
      "##볷": 9908,
      "##릌": 9909,
      "##곦": 9910,
      "##쏄": 9911,
      "##윜": 9912,
      "##엶": 9913,
      "##쭟": 9914,
      "##쥿": 9915,
      "##뼥": 9916,
      "##뉈": 9917,
      "##햟": 9918,
      "##푨": 9919,
      "##뚁": 9920,
      "##뜳": 9921,
      "##힗": 9922,
      "##끟": 9923,
      "##폡": 9924,
      "##뽖": 9925,
      "##쯬": 9926,
      "##슸": 9927,
      "##좭": 9928,
      "##뢈": 9929,
      "##륡": 9930,
      "##짪": 9931,
      "##퓩": 9932,
      "##쉞": 9933,
      "##쟇": 9934,
      "##뿎": 9935,
      "##괒": 9936,
      "##믽": 9937,
      "##밓": 9938,
      "##벭": 9939,
      "##꿁": 9940,
      "##떧": 9941,
      "##놏": 9942,
      "##뎇": 9943,
      "##핚": 9944,
      "##짂": 9945,
      "##듹": 9946,
      "##뎆": 9947,
      "##갷": 9948,
      "##흟": 9949,
      "##뷧": 9950,
      "##핽": 9951,
      "##걳": 9952,
      "##쎗": 9953,
      "##윬": 9954,
      "##쒰": 9955,
      "##쉜": 9956,
      "##ㄾ": 9957,
      "##퐉": 9958,
      "##죳": 9959,
      "##늼": 9960,
      "##뛟": 9961,
      "##앩": 9962,
      "##탖": 9963,
      "##윀": 9964,
      "##쫃": 9965,
      "##뽭": 9966,
      "##펲": 9967,
      "##쩖": 9968,
      "##둙": 9969,
      "##쬡": 9970,
      "##뎢": 9971,
      "##듑": 9972,
      "##끐": 9973,
      "##욪": 9974,
      "##흪": 9975,
      "##퐌": 9976,
      "##뤩": 9977,
      "##넁": 9978,
      "##긶": 9979,
      "##뼤": 9980,
      "##펬": 9981,
      "##붠": 9982,
      "##먽": 9983,
      "##잀": 9984,
      "##꺇": 9985,
      "##럔": 9986,
      "##뎻": 9987,
      "##낪": 9988,
      "##밊": 9989,
      "##찄": 9990,
      "##쮹": 9991,
      "##왙": 9992,
      "##갊": 9993,
      "##듓": 9994,
      "##뉏": 9995,
      "##릯": 9996,
      "##혺": 9997,
      "##벑": 9998,
      "##빹": 9999,
      "##쳫": 10000,
      "##뻨": 10001,
      "##탺": 10002,
      "##찺": 10003,
      "##뱞": 10004,
      "##얎": 10005,
      "##톮": 10006,
      "##똝": 10007,
      "##퀫": 10008,
      "##뀡": 10009,
      "##헺": 10010,
      "##꼣": 10011,
      "##찱": 10012,
      "##얃": 10013,
      "##앹": 10014,
      "##벩": 10015,
      "##씍": 10016,
      "##꼮": 10017,
      "##앦": 10018,
      "##곂": 10019,
      "##썐": 10020,
      "##싦": 10021,
      "##쐑": 10022,
      "##꼳": 10023,
      "##톸": 10024,
      "##둳": 10025,
      "##씠": 10026,
      "##뾸": 10027,
      "##굷": 10028,
      "##됣": 10029,
      "##쯑": 10030,
      "##닖": 10031,
      "##뎗": 10032,
      "##븧": 10033,
      "##몡": 10034,
      "##릚": 10035,
      "##쉄": 10036,
      "##렶": 10037,
      "##픜": 10038,
      "##괕": 10039,
      "##뢶": 10040,
      "##긻": 10041,
      "##륽": 10042,
      "##픟": 10043,
      "##샑": 10044,
      "##훐": 10045,
      "##쁙": 10046,
      "##쨨": 10047,
      "##윴": 10048,
      "##췁": 10049,
      "##젗": 10050,
      "##냸": 10051,
      "##젉": 10052,
      "##졧": 10053,
      "##씔": 10054,
      "##뙿": 10055,
      "##쨏": 10056,
      "##룳": 10057,
      "##싞": 10058,
      "##궡": 10059,
      "##뚷": 10060,
      "##믗": 10061,
      "##쯰": 10062,
      "##먍": 10063,
      "##뻪": 10064,
      "##빺": 10065,
      "##춮": 10066,
      "##턐": 10067,
      "##뭌": 10068,
      "##뵴": 10069,
      "##쌚": 10070,
      "##숝": 10071,
      "##챹": 10072,
      "##샪": 10073,
      "##뎙": 10074,
      "##촕": 10075,
      "##띹": 10076,
      "##됰": 10077,
      "##갽": 10078,
      "##돇": 10079,
      "##왛": 10080,
      "##뜵": 10081,
      "##쾁": 10082,
      "##쯉": 10083,
      "##뉙": 10084,
      "##롔": 10085,
      "##퉆": 10086,
      "##첄": 10087,
      "##쇝": 10088,
      "##뺼": 10089,
      "##죴": 10090,
      "##찫": 10091,
      "##뺛": 10092,
      "##젻": 10093,
      "##뚶": 10094,
      "##볾": 10095,
      "##죢": 10096,
      "##챲": 10097,
      "##푾": 10098,
      "##첣": 10099,
      "##끤": 10100,
      "##릷": 10101,
      "##뉤": 10102,
      "##굸": 10103,
      "##밳": 10104,
      "##슳": 10105,
      "##젌": 10106,
      "##툑": 10107,
      "##윯": 10108,
      "##혩": 10109,
      "##꽇": 10110,
      "##읬": 10111,
      "##뛱": 10112,
      "##덄": 10113,
      "##읚": 10114,
      "##놄": 10115,
      "##눃": 10116,
      "##꿓": 10117,
      "##졏": 10118,
      "##웚": 10119,
      "##턑": 10120,
      "##옱": 10121,
      "##봁": 10122,
      "##멹": 10123,
      "##뷵": 10124,
      "##붃": 10125,
      "##뗝": 10126,
      "##붆": 10127,
      "##팗": 10128,
      "##폯": 10129,
      "##룥": 10130,
      "##뱏": 10131,
      "##펗": 10132,
      "##뱕": 10133,
      "##뚕": 10134,
      "##퐃": 10135,
      "##맋": 10136,
      "##횸": 10137,
      "##틧": 10138,
      "##꺢": 10139,
      "##뙇": 10140,
      "##툵": 10141,
      "##꿐": 10142,
      "##뎜": 10143,
      "##흿": 10144,
      "##숮": 10145,
      "##꺀": 10146,
      "##핁": 10147,
      "##쾐": 10148,
      "##곋": 10149,
      "##벒": 10150,
      "##벓": 10151,
      "##붒": 10152,
      "##뷼": 10153,
      "##뼠": 10154,
      "##뵳": 10155,
      "##춦": 10156,
      "##퍚": 10157,
      "##뻖": 10158,
      "##햚": 10159,
      "##뫌": 10160,
      "##놂": 10161,
      "##먅": 10162,
      "##촊": 10163,
      "##폂": 10164,
      "##돊": 10165,
      "##촖": 10166,
      "##톲": 10167,
      "##댶": 10168,
      "##뱒": 10169,
      "##튶": 10170,
      "##옡": 10171,
      "##섘": 10172,
      "##웊": 10173,
      "##튯": 10174,
      "##쪗": 10175,
      "##귢": 10176,
      "##몋": 10177,
      "##폦": 10178,
      "##랎": 10179,
      "##녋": 10180,
      "##늒": 10181,
      "##졂": 10182,
      "##껗": 10183,
      "##텊": 10184,
      "##듛": 10185,
      "##촷": 10186,
      "##뗶": 10187,
      "##몍": 10188,
      "##귚": 10189,
      "##뉫": 10190,
      "##쿯": 10191,
      "##텧": 10192,
      "##렪": 10193,
      "##햰": 10194,
      "##럠": 10195,
      "##쀽": 10196,
      "##쉇": 10197,
      "##볠": 10198,
      "##컅": 10199,
      "##섫": 10200,
      "##붂": 10201,
      "##틕": 10202,
      "##뇍": 10203,
      "##뵁": 10204,
      "##챺": 10205,
      "##뤕": 10206,
      "##댢": 10207,
      "##즑": 10208,
      "##솂": 10209,
      "##늿": 10210,
      "##윋": 10211,
      "##긌": 10212,
      "##휋": 10213,
      "##웖": 10214,
      "##붅": 10215,
      "##첳": 10216,
      "##빜": 10217,
      "##닑": 10218,
      "##쩒": 10219,
      "##낅": 10220,
      "##폣": 10221,
      "##뎦": 10222,
      "##긓": 10223,
      "##켛": 10224,
      "##뗫": 10225,
      "##툻": 10226,
      "##슆": 10227,
      "##윁": 10228,
      "##뻛": 10229,
      "##빥": 10230,
      "##쟑": 10231,
      "##붍": 10232,
      "##쁎": 10233,
      "##봂": 10234,
      "##쁖": 10235,
      "##럸": 10236,
      "##뗞": 10237,
      "##삱": 10238,
      "##풐": 10239,
      "##엹": 10240,
      "##푩": 10241,
      "##켞": 10242,
      "##긲": 10243,
      "##뷫": 10244,
      "##갨": 10245,
      "##틼": 10246,
      "##믛": 10247,
      "##뇠": 10248,
      "##읤": 10249,
      "##줮": 10250,
      "##긄": 10251,
      "##홭": 10252,
      "##짷": 10253,
      "##횢": 10254,
      "##륺": 10255,
      "##옪": 10256,
      "##잓": 10257,
      "##졳": 10258,
      "##맕": 10259,
      "##뱽": 10260,
      "##녯": 10261,
      "##쑷": 10262,
      "##땵": 10263,
      "##됟": 10264,
      "##굫": 10265,
      "##핔": 10266,
      "##짲": 10267,
      "##쒯": 10268,
      "##쟥": 10269,
      "##챴": 10270,
      "##싻": 10271,
      "##엩": 10272,
      "##잟": 10273,
      "##뤳": 10274,
      "##흏": 10275,
      "##젾": 10276,
      "##댬": 10277,
      "##덼": 10278,
      "##룑": 10279,
      "##콋": 10280,
      "##줐": 10281,
      "##럆": 10282,
      "##콉": 10283,
      "##옟": 10284,
      "##싩": 10285,
      "##닍": 10286,
      "##닣": 10287,
      "##챁": 10288,
      "##얠": 10289,
      "##좧": 10290,
      "##졗": 10291,
      "##씥": 10292,
      "##웳": 10293,
      "##냹": 10294,
      "##좰": 10295,
      "##쁰": 10296,
      "##뚵": 10297,
      "##궭": 10298,
      "##왶": 10299,
      "##깣": 10300,
      "##펰": 10301,
      "##럏": 10302,
      "##쨱": 10303,
      "##쳈": 10304,
      "##혱": 10305,
      "##힂": 10306,
      "##긏": 10307,
      "##겷": 10308,
      "##옏": 10309,
      "##삮": 10310,
      "##윧": 10311,
      "##쉙": 10312,
      "##멒": 10313,
      "##찲": 10314,
      "##잢": 10315,
      "##뱚": 10316,
      "##졾": 10317,
      "##욚": 10318,
      "##덠": 10319,
      "##턒": 10320,
      "##첚": 10321,
      "##촒": 10322,
      "##뭀": 10323,
      "##벾": 10324,
      "##쇌": 10325,
      "##갌": 10326,
      "##뵼": 10327,
      "##뉀": 10328,
      "##퉨": 10329,
      "##럷": 10330,
      "##럙": 10331,
      "##햩": 10332,
      "##욓": 10333,
      "##훰": 10334,
      "##왧": 10335,
      "##뷃": 10336,
      "##둚": 10337,
      "##갣": 10338,
      "##훳": 10339,
      "##쬷": 10340,
      "##홅": 10341,
      "##쌻": 10342,
      "##풇": 10343,
      "##숕": 10344,
      "##뱎": 10345,
      "##냫": 10346,
      "##쳗": 10347,
      "##횓": 10348,
      "##쟟": 10349,
      "##뮳": 10350,
      "##빷": 10351,
      "##밙": 10352,
      "##뽘": 10353,
      "##뽔": 10354,
      "##벇": 10355,
      "##똙": 10356,
      "##폃": 10357,
      "##툩": 10358,
      "##푫": 10359,
      "##묱": 10360,
      "##뫘": 10361,
      "##쭞": 10362,
      "##젿": 10363,
      "##툡": 10364,
      "##눁": 10365,
      "##뿉": 10366,
      "##쟗": 10367,
      "##뼡": 10368,
      "##턌": 10369,
      "##묟": 10370,
      "##욟": 10371,
      "##똛": 10372,
      "##싾": 10373,
      "##펋": 10374,
      "##썮": 10375,
      "##묩": 10376,
      "##멁": 10377,
      "##븞": 10378,
      "##폮": 10379,
      "##됼": 10380,
      "##롟": 10381,
      "##랝": 10382,
      "##쯀": 10383,
      "##쟕": 10384,
      "##씤": 10385,
      "##됵": 10386,
      "##뤬": 10387,
      "##줔": 10388,
      "##닁": 10389,
      "##붊": 10390,
      "##퍗": 10391,
      "##쪌": 10392,
      "##귪": 10393,
      "##궸": 10394,
      "##궼": 10395,
      "##잂": 10396,
      "##꾱": 10397,
      "##뀟": 10398,
      "##퍤": 10399,
      "##컀": 10400,
      "##슂": 10401,
      "##걉": 10402,
      "##췔": 10403,
      "##띿": 10404,
      "##챇": 10405,
      "##팭": 10406,
      "##퀧": 10407,
      "##롳": 10408,
      "##깶": 10409,
      "##궪": 10410,
      "##뚂": 10411,
      "##곴": 10412,
      "##붹": 10413,
      "##뿁": 10414,
      "##턈": 10415,
      "##뛹": 10416,
      "##퐠": 10417,
      "##븠": 10418,
      "##궞": 10419,
      "##낤": 10420,
      "##켣": 10421,
      "##뜼": 10422,
      "##죷": 10423,
      "##쐽": 10424,
      "##쩩": 10425,
      "##윟": 10426,
      "##윝": 10427,
      "##껶": 10428,
      "##왂": 10429,
      "##젺": 10430,
      "##쓖": 10431,
      "##죸": 10432,
      "##켳": 10433,
      "##땳": 10434,
      "##쪤": 10435,
      "##욽": 10436,
      "##좄": 10437,
      "##놤": 10438,
      "##눵": 10439,
      "##쵣": 10440,
      "##퇬": 10441,
      "##럌": 10442,
      "##괔": 10443,
      "##쟞": 10444,
      "##숚": 10445,
      "##뎰": 10446,
      "##뮻": 10447,
      "##뮧": 10448,
      "##푥": 10449,
      "##쟔": 10450,
      "##욦": 10451,
      "##츆": 10452,
      "##숁": 10453,
      "##댥": 10454,
      "##뿋": 10455,
      "##륝": 10456,
      "##촍": 10457,
      "##뚳": 10458,
      "##룛": 10459,
      "##휝": 10460,
      "##볅": 10461,
      "##뎧": 10462,
      "##덌": 10463,
      "##댯": 10464,
      "##쬽": 10465,
      "##뫽": 10466,
      "##꺕": 10467,
      "##벟": 10468,
      "##쫣": 10469,
      "##똵": 10470,
      "##뽧": 10471,
      "##꽑": 10472,
      "##폕": 10473,
      "##풕": 10474,
      "##졵": 10475,
      "##뢕": 10476,
      "##턹": 10477,
      "##빮": 10478,
      "##툸": 10479,
      "##뚆": 10480,
      "##툔": 10481,
      "##몭": 10482,
      "##칱": 10483,
      "##캋": 10484,
      "##퐞": 10485,
      "##똰": 10486,
      "##첻": 10487,
      "##녝": 10488,
      "##귖": 10489,
      "##럒": 10490,
      "##퇫": 10491,
      "##뢳": 10492,
      "##햻": 10493,
      "##셝": 10494,
      "##쇗": 10495,
      "##젚": 10496,
      "##뀸": 10497,
      "##걊": 10498,
      "##끍": 10499,
      "##떅": 10500,
      "##쓬": 10501,
      "##퓅": 10502,
      "##댫": 10503,
      "##츀": 10504,
      "##뭟": 10505,
      "##얾": 10506,
      "##탵": 10507,
      "##쫔": 10508,
      "##셛": 10509,
      "##뭠": 10510,
      "##얿": 10511,
      "##됈": 10512,
      "##뺝": 10513,
      "##뮶": 10514,
      "##뿘": 10515,
      "##쁐": 10516,
      "##뎒": 10517,
      "##윮": 10518,
      "##첛": 10519,
      "##팛": 10520,
      "##툓": 10521,
      "##촡": 10522,
      "##냽": 10523,
      "##귾": 10524,
      "##굲": 10525,
      "##폥": 10526,
      "##쁅": 10527,
      "##롘": 10528,
      "##먗": 10529,
      "##쾻": 10530,
      "##짡": 10531,
      "##붝": 10532,
      "##챊": 10533,
      "##켷": 10534,
      "##즣": 10535,
      "##릫": 10536,
      "##큮": 10537,
      "##퓹": 10538,
      "##뙵": 10539,
      "##으로": 10540,
      "##에서": 10541,
      "##했다": 10542,
      "##니다": 10543,
      "있다": 10544,
      "##하는": 10545,
      "##하고": 10546,
      "##이다": 10547,
      "20": 10548,
      "##지만": 10549,
      "##습니다": 10550,
      "##었다": 10551,
      "있는": 10552,
      "##00": 10553,
      "##들이": 10554,
      "##에게": 10555,
      "##한다": 10556,
      "##라고": 10557,
      "##까지": 10558,
      "##면서": 10559,
      "##다는": 10560,
      "##다고": 10561,
      "대한": 10562,
      "지난": 10563,
      "201": 10564,
      "##에는": 10565,
      "##적으로": 10566,
      "##적인": 10567,
      "##들은": 10568,
      "##부터": 10569,
      "것으로": 10570,
      "##하게": 10571,
      "것이": 10572,
      "##하기": 10573,
      "위해": 10574,
      "때문": 10575,
      "19": 10576,
      "말했다": 10577,
      "사람": 10578,
      "##라는": 10579,
      "10": 10580,
      "##으며": 10581,
      "##는데": 10582,
      "우리": 10583,
      "##들의": 10584,
      "##하지": 10585,
      "한국": 10586,
      "대해": 10587,
      "경우": 10588,
      "##였다": 10589,
      "한다": 10590,
      "미국": 10591,
      "사용": 10592,
      "정부": 10593,
      "아니": 10594,
      "##았다": 10595,
      "그러": 10596,
      "##에서는": 10597,
      "문제": 10598,
      "##리고": 10599,
      "##통령": 10600,
      "##기를": 10601,
      "서울": 10602,
      "때문에": 10603,
      "200": 10604,
      "대통령": 10605,
      "다른": 10606,
      "##들을": 10607,
      "자신": 10608,
      "##에도": 10609,
      "##하여": 10610,
      "##이나": 10611,
      "같은": 10612,
      "##자는": 10613,
      "이후": 10614,
      "생각": 10615,
      "함께": 10616,
      "##대로": 10617,
      "##리는": 10618,
      "통해": 10619,
      "그는": 10620,
      "##입니다": 10621,
      "아이": 10622,
      "가능": 10623,
      "##하다": 10624,
      "##보다": 10625,
      "하는": 10626,
      "했다": 10627,
      "들어": 10628,
      "중국": 10629,
      "밝혔": 10630,
      "이상": 10631,
      "따라": 10632,
      "대표": 10633,
      "##리를": 10634,
      "것은": 10635,
      "##사를": 10636,
      "12": 10637,
      "것을": 10638,
      "##지는": 10639,
      "##된다": 10640,
      "시작": 10641,
      "가장": 10642,
      "의원": 10643,
      "##되는": 10644,
      "##위원": 10645,
      "이번": 10646,
      "##장을": 10647,
      "##장은": 10648,
      "것이다": 10649,
      "##하면": 10650,
      "관련": 10651,
      "관계": 10652,
      "일본": 10653,
      "밝혔다": 10654,
      "지역": 10655,
      "11": 10656,
      "##도록": 10657,
      "##졌다": 10658,
      "이어": 10659,
      "##기에": 10660,
      "국민": 10661,
      "##하며": 10662,
      "##해야": 10663,
      "그러나": 10664,
      "하지만": 10665,
      "##스트": 10666,
      "##자가": 10667,
      "있습니다": 10668,
      "사실": 10669,
      "만들": 10670,
      "현재": 10671,
      "##됐다": 10672,
      "경찰": 10673,
      "##기도": 10674,
      "##레이": 10675,
      "##지를": 10676,
      "많은": 10677,
      "필요": 10678,
      "##지고": 10679,
      "정도": 10680,
      "상황": 10681,
      "##장이": 10682,
      "하나": 10683,
      "##서는": 10684,
      "모두": 10685,
      "##하면서": 10686,
      "세계": 10687,
      "##거나": 10688,
      "##성이": 10689,
      "##합니다": 10690,
      "있어": 10691,
      "사이": 10692,
      "이라고": 10693,
      "이날": 10694,
      "하고": 10695,
      "##기가": 10696,
      "##르면": 10697,
      "##회의": 10698,
      "경제": 10699,
      "##들에게": 10700,
      "##처럼": 10701,
      "그녀": 10702,
      "##력을": 10703,
      "##er": 10704,
      "시간": 10705,
      "국가": 10706,
      "않는": 10707,
      "등을": 10708,
      "북한": 10709,
      "15": 10710,
      "##했습니다": 10711,
      "##이고": 10712,
      "지난해": 10713,
      "없다": 10714,
      "다시": 10715,
      "##만원": 10716,
      "그리고": 10717,
      "##억원": 10718,
      "##있는": 10719,
      "위한": 10720,
      "30": 10721,
      "후보": 10722,
      "최근": 10723,
      "지원": 10724,
      "##해서": 10725,
      "모든": 10726,
      "된다": 10727,
      "진행": 10728,
      "##성을": 10729,
      "따르면": 10730,
      "##리가": 10731,
      "##으나": 10732,
      "없는": 10733,
      "특히": 10734,
      "이런": 10735,
      "프로": 10736,
      "##되고": 10737,
      "결과": 10738,
      "동안": 10739,
      "##되어": 10740,
      "##사가": 10741,
      "##이라": 10742,
      "당시": 10743,
      "정치": 10744,
      "지금": 10745,
      "있다고": 10746,
      "다음": 10747,
      "이용": 10748,
      "18": 10749,
      "##000": 10750,
      "##으면": 10751,
      "그런": 10752,
      "보고": 10753,
      "##정을": 10754,
      "##사는": 10755,
      "##시아": 10756,
      "##이는": 10757,
      "##되었다": 10758,
      "설명": 10759,
      "있었": 10760,
      "기업": 10761,
      "사업": 10762,
      "##상을": 10763,
      "##시간": 10764,
      "##리아": 10765,
      "사건": 10766,
      "있었다": 10767,
      "##an": 10768,
      "기록": 10769,
      "그의": 10770,
      "##0년": 10771,
      "또한": 10772,
      "##화를": 10773,
      "국내": 10774,
      "이유": 10775,
      "##이라고": 10776,
      "##기는": 10777,
      "모습": 10778,
      "아니라": 10779,
      "##로운": 10780,
      "계획": 10781,
      "사회": 10782,
      "##들과": 10783,
      "공격": 10784,
      "##에서도": 10785,
      "알려": 10786,
      "##자를": 10787,
      "일부": 10788,
      "주장": 10789,
      "많이": 10790,
      "##주의": 10791,
      "연구": 10792,
      "올해": 10793,
      "##on": 10794,
      "##자의": 10795,
      "##가는": 10796,
      "이미": 10797,
      "피해": 10798,
      "조사": 10799,
      "발생": 10800,
      "##비스": 10801,
      "발표": 10802,
      "나타": 10803,
      "##렇게": 10804,
      "##인이": 10805,
      "##했다고": 10806,
      "있다는": 10807,
      "자신의": 10808,
      "최고": 10809,
      "16": 10810,
      "포함": 10811,
      "##학교": 10812,
      "처음": 10813,
      "예정": 10814,
      "13": 10815,
      "##in": 10816,
      "않고": 10817,
      "##었습니다": 10818,
      "사진": 10819,
      "내용": 10820,
      "교육": 10821,
      "##이었다": 10822,
      "금융": 10823,
      "경기": 10824,
      "상태": 10825,
      "확인": 10826,
      "나오": 10827,
      "##이트": 10828,
      "게임": 10829,
      "14": 10830,
      "추가": 10831,
      "삼성": 10832,
      "##기로": 10833,
      "이에": 10834,
      "시장": 10835,
      "결정": 10836,
      "계속": 10837,
      "않은": 10838,
      "##다가": 10839,
      "##ar": 10840,
      "나는": 10841,
      "여러": 10842,
      "있을": 10843,
      "라고": 10844,
      "##이라는": 10845,
      "전문": 10846,
      "##위원회": 10847,
      "국회": 10848,
      "##이며": 10849,
      "17": 10850,
      "##했던": 10851,
      "보여": 10852,
      "운영": 10853,
      "않았": 10854,
      "25": 10855,
      "##리스": 10856,
      "그것": 10857,
      "떨어": 10858,
      "수도": 10859,
      "기술": 10860,
      "##인다": 10861,
      "여성": 10862,
      "이를": 10863,
      "##이지": 10864,
      "##기업": 10865,
      "##력이": 10866,
      "돌아": 10867,
      "##이스": 10868,
      "##운데": 10869,
      "지적": 10870,
      "##위를": 10871,
      "이름": 10872,
      "##명이": 10873,
      "관계자는": 10874,
      "제공": 10875,
      "##했고": 10876,
      "기준": 10877,
      "새로운": 10878,
      "이라": 10879,
      "##부는": 10880,
      "##렸다": 10881,
      "요구": 10882,
      "인터": 10883,
      "##명을": 10884,
      "개발": 10885,
      "영국": 10886,
      "증가": 10887,
      "##치를": 10888,
      "공개": 10889,
      "##어나": 10890,
      "정보": 10891,
      "##하였다": 10892,
      "##사의": 10893,
      "민주": 10894,
      "기자": 10895,
      "##라도": 10896,
      "##겠다": 10897,
      "선수": 10898,
      "받아": 10899,
      "등의": 10900,
      "##8년": 10901,
      "판매": 10902,
      "##도를": 10903,
      "실제": 10904,
      "오후": 10905,
      "대상": 10906,
      "##의를": 10907,
      "평가": 10908,
      "##랜드": 10909,
      "##인은": 10910,
      "정책": 10911,
      "##시키": 10912,
      "가운데": 10913,
      "중요": 10914,
      "검찰": 10915,
      "##지가": 10916,
      "국제": 10917,
      "##부분": 10918,
      "##5년": 10919,
      "전체": 10920,
      "##식을": 10921,
      "너무": 10922,
      "##2년": 10923,
      "그래": 10924,
      "##은행": 10925,
      "일반": 10926,
      "만들어": 10927,
      "##났다": 10928,
      "좋은": 10929,
      "직접": 10930,
      "수준": 10931,
      "##4년": 10932,
      "##원이": 10933,
      "최대": 10934,
      "영향": 10935,
      "##3년": 10936,
      "100": 10937,
      "##안을": 10938,
      "학생": 10939,
      "아닌": 10940,
      "##대를": 10941,
      "다양": 10942,
      "199": 10943,
      "참여": 10944,
      "##7년": 10945,
      "##금을": 10946,
      "##마트": 10947,
      "##리에": 10948,
      "이야": 10949,
      "##주는": 10950,
      "가족": 10951,
      "##동을": 10952,
      "결국": 10953,
      "##대표": 10954,
      "있고": 10955,
      "##니까": 10956,
      "##어서": 10957,
      "부분": 10958,
      "##9년": 10959,
      "어떤": 10960,
      "있으며": 10961,
      "##원은": 10962,
      "선거": 10963,
      "어려": 10964,
      "##or": 10965,
      "오늘": 10966,
      "##씨는": 10967,
      "역시": 10968,
      "서비스": 10969,
      "투자": 10970,
      "전망": 10971,
      "##인의": 10972,
      "가격": 10973,
      "강조": 10974,
      "##6년": 10975,
      "##장의": 10976,
      "##도가": 10977,
      "학교": 10978,
      "##전히": 10979,
      "##하려": 10980,
      "50": 10981,
      "대학": 10982,
      "것이라고": 10983,
      "##되지": 10984,
      "##원을": 10985,
      "##en": 10986,
      "##었고": 10987,
      "##가지": 10988,
      "분석": 10989,
[...]
